<unk>	0
<s>	0
</s>	0
▁t	-0
he	-1
<pad>	0
▁a	-2
▁s	-3
▁the	-4
▁w	-5
nd	-6
▁b	-7
ed	-8
▁to	-9
▁and	-10
▁h	-11
▁f	-12
▁i	-13
▁l	-14
▁wa	-15
re	-16
▁he	-17
ou	-18
▁m	-19
▁d	-20
on	-21
▁c	-22
▁p	-23
ay	-24
in	-25
▁was	-26
er	-27
▁sa	-28
it	-29
▁n	-30
ar	-31
im	-32
ll	-33
id	-34
om	-35
▁they	-36
▁ha	-37
▁g	-38
is	-39
at	-40
ing	-41
ot	-42
▁it	-43
nt	-44
le	-45
an	-46
▁on	-47
or	-48
▁she	-49
▁tim	-50
ir	-51
▁be	-52
▁th	-53
ig	-54
▁we	-55
▁li	-56
▁pl	-57
am	-58
et	-59
▁y	-60
▁"	-61
ow	-62
▁in	-63
ver	-64
ri	-65
ut	-66
ly	-67
▁u	-68
▁e	-69
▁said	-70
▁play	-71
▁wit	-72
▁with	-73
▁o	-74
▁day	-75
pp	-76
▁r	-77
▁her	-78
oo	-79
▁his	-80
ked	-81
▁you	-82
ld	-83
ve	-84
ce	-85
ke	-86
▁st	-87
▁big	-88
st	-89
very	-90
ck	-91
end	-92
▁ma	-93
."	-94
▁happ	-95
un	-96
riend	-97
▁friend	-98
▁ba	-99
her	-100
▁had	-101
▁not	-102
▁up	-103
▁do	-104
▁mom	-105
▁but	-106
▁want	-107
▁so	-108
▁of	-109
se	-110
itt	-111
en	-112
▁that	-113
▁happy	-114
▁very	-115
▁bo	-116
es	-117
▁saw	-118
ould	-119
▁for	-120
▁sh	-121
▁k	-122
ittle	-123
▁little	-124
▁j	-125
ch	-126
▁ne	-127
▁there	-128
▁nam	-129
▁time	-130
▁an	-131
ound	-132
▁lily	-133
▁named	-134
▁sm	-135
▁tom	-136
▁were	-137
▁one	-138
▁wanted	-139
out	-140
one	-141
▁su	-142
▁friends	-143
!"	-144
ved	-145
▁wh	-146
ht	-147
▁bir	-148
▁bird	-149
al	-150
▁all	-151
ra	-152
▁too	-153
ome	-154
lp	-155
▁went	-156
el	-157
ug	-158
▁once	-159
▁sp	-160
the	-161
▁is	-162
ad	-163
▁help	-164
▁loo	-165
▁lo	-166
ter	-167
il	-168
▁upon	-169
▁as	-170
ry	-171
all	-172
ore	-173
▁at	-174
▁fun	-175
get	-176
▁toy	-177
ame	-178
▁re	-179
ind	-180
ill	-181
▁fr	-182
▁did	-183
ide	-184
gether	-185
▁together	-186
▁can	-187
▁se	-188
▁cat	-189
▁tre	-190
ood	-191
▁dog	-192
ic	-193
ted	-194
▁their	-195
▁could	-196
ard	-197
▁ro	-198
ark	-199
▁le	-200
ec	-201
▁gir	-202
▁go	-203
▁ball	-204
▁played	-205
▁him	-206
?"	-207
▁girl	-208
way	-209
▁are	-210
hed	-211
▁out	-212
▁ca	-213
ain	-214
my	-215
▁kn	-216
hen	-217
▁them	-218
um	-219
▁sad	-220
de	-221
▁man	-222
▁boy	-223
ul	-224
▁tree	-225
▁have	-226
other	-227
▁cl	-228
▁loved	-229
▁looked	-230
oug	-231
▁found	-232
▁star	-233
▁sue	-234
ur	-235
hing	-236
▁sc	-237
▁back	-238
▁max	-239
own	-240
▁like	-241
▁from	-242
▁me	-243
ful	-244
side	-245
▁every	-246
▁bec	-247
▁la	-248
▁car	-249
▁ta	-250
▁park	-251
ight	-252
ong	-253
▁fa	-254
▁sam	-255
▁ben	-256
▁would	-257
elt	-258
▁liked	-259
op	-260
ily	-261
▁make	-262
round	-263
▁felt	-264
▁see	-265
▁no	-266
▁then	-267
omet	-268
▁asked	-269
▁when	-270
as	-271
▁new	-272
▁al	-273
ouse	-274
▁started	-275
ared	-276
▁came	-277
▁somet	-278
▁other	-279
ought	-280
iled	-281
▁br	-282
▁good	-283
▁ag	-284
▁fl	-285
▁small	-286
▁what	-287
▁smiled	-288
▁say	-289
ia	-290
ried	-291
ings	-292
▁fe	-293
ie	-294
th	-295
▁spot	-296
▁co	-297
▁wor	-298
▁find	-299
▁ex	-300
▁away	-301
▁put	-302
▁something	-303
ty	-304
▁made	-305
▁thought	-306
ice	-307
ened	-308
▁home	-309
▁playing	-310
ue	-311
▁wal	-312
▁mu	-313
ook	-314
ss	-315
arn	-316
▁some	-317
ile	-318
▁ran	-319
▁bl	-320
▁again	-321
cy	-322
▁laug	-323
dd	-324
ach	-325
ble	-326
▁house	-327
▁will	-328
▁my	-329
▁down	-330
king	-331
▁pr	-332
▁ch	-333
▁took	-334
▁scared	-335
ny	-336
▁toys	-337
▁learn	-338
▁your	-339
▁bu	-340
ave	-341
▁box	-342
ret	-343
ep	-344
▁around	-345
▁things	-346
▁sun	-347
oud	-348
▁lived	-349
ish	-350
ge	-351
▁sw	-352
,"	-353
ick	-354
pped	-355
▁mia	-356
ank	-357
yes	-358
▁get	-359
▁dad	-360
ucy	-361
ump	-362
▁lot	-363
▁this	-364
ist	-365
▁many	-366
tim	-367
uck	-368
oth	-369
▁let	-370
▁tried	-371
na	-372
▁who	-373
▁know	-374
ure	-375
▁says	-376
▁ab	-377
▁got	-378
ited	-379
▁kne	-380
ust	-381
nder	-382
▁int	-383
▁about	-384
▁red	-385
ell	-386
▁po	-387
▁pret	-388
ive	-389
are	-390
▁jo	-391
▁any	-392
▁dec	-393
fe	-394
▁pu	-395
au	-396
▁knew	-397
ace	-398
▁more	-399
ous	-400
ise	-401
qu	-402
▁care	-403
▁lucy	-404
▁pic	-405
▁hug	-406
▁water	-407
▁learned	-408
▁v	-409
fter	-410
▁look	-411
▁became	-412
▁best	-413
▁gre	-414
▁inside	-415
▁op	-416
▁pe	-417
▁ho	-418
▁exc	-419
ause	-420
▁un	-421
ways	-422
▁outside	-423
▁laughed	-424
▁always	-425
▁bob	-426
▁show	-427
▁decid	-428
▁because	-429
▁room	-430
▁decided	-431
▁eat	-432
▁into	-433
ite	-434
ma	-435
▁both	-436
▁jump	-437
▁gra	-438
▁mo	-439
▁ke	-440
ers	-441
pr	-442
▁sur	-443
ap	-444
they	-445
lily	-446
▁excited	-447
▁nice	-448
▁fast	-449
▁feel	-450
▁run	-451
▁long	-452
our	-453
▁sk	-454
▁told	-455
▁tr	-456
▁take	-457
▁how	-458
lly	-459
ft	-460
▁surpr	-461
▁pretty	-462
ink	-463
iny	-464
▁sor	-465
wh	-466
ged	-467
▁sl	-468
bb	-469
▁each	-470
▁rock	-471
▁now	-472
ant	-473
▁gave	-474
▁much	-475
lew	-476
▁str	-477
▁or	-478
imal	-479
▁animal	-480
▁need	-481
▁under	-482
tom	-483
▁than	-484
▁just	-485
▁tow	-486
ro	-487
ched	-488
▁bear	-489
sed	-490
ack	-491
▁sorry	-492
▁old	-493
▁after	-494
ent	-495
but	-496
ff	-497
ised	-498
here	-499
▁fish	-500
urt	-501
▁cle	-502
▁walked	-503
▁clo	-504
ess	-505
▁bet	-506
ven	-507
▁hand	-508
urn	-509
▁kind	-510
▁te	-511
▁tw	-512
▁fi	-513
▁if	-514
▁list	-515
▁happened	-516
▁flow	-517
▁food	-518
▁fin	-519
▁sky	-520
▁wat	-521
▁didn	-522
▁animals	-523
▁hig	-524
▁near	-525
▁try	-526
▁ide	-527
pl	-528
ving	-529
ate	-530
▁amy	-531
▁bug	-532
▁its	-533
by	-534
▁idea	-535
▁better	-536
let	-537
▁fo	-538
▁don	-539
▁heard	-540
gry	-541
thank	-542
▁am	-543
pec	-544
ase	-545
▁en	-546
▁dan	-547
so	-548
▁everyone	-549
▁share	-550
▁careful	-551
▁ra	-552
▁fly	-553
▁anna	-554
▁stor	-555
ial	-556
▁even	-557
▁flew	-558
more	-559
▁come	-560
▁blue	-561
▁by	-562
▁anymore	-563
ine	-564
og	-565
▁spec	-566
▁special	-567
▁cu	-568
▁com	-569
▁lots	-570
▁never	-571
ally	-572
lf	-573
ion	-574
ream	-575
▁end	-576
mom	-577
▁wind	-578
oke	-579
▁love	-580
▁clean	-581
▁mag	-582
ort	-583
rm	-584
▁safe	-585
▁sara	-586
ople	-587
▁tal	-588
▁gr	-589
sh	-590
▁people	-591
be	-592
▁hard	-593
▁shiny	-594
▁over	-595
▁give	-596
▁fore	-597
dden	-598
▁cake	-599
▁book	-600
▁col	-601
ex	-602
ber	-603
▁turn	-604
▁bad	-605
▁fam	-606
ady	-607
ddenly	-608
▁proud	-609
▁surprised	-610
pected	-611
▁high	-612
▁hurt	-613
▁che	-614
imb	-615
▁gard	-616
▁door	-617
▁garden	-618
▁bea	-619
you	-620
▁ground	-621
▁opened	-622
▁picked	-623
▁climb	-624
▁loud	-625
▁gl	-626
expected	-627
▁unexpected	-628
ild	-629
ct	-630
▁way	-631
▁far	-632
▁still	-633
▁thanked	-634
▁color	-635
▁ever	-636
▁hugged	-637
▁call	-638
ip	-639
mp	-640
▁off	-641
▁magic	-642
▁soon	-643
ough	-644
ummy	-645
▁mommy	-646
▁jumped	-647
▁should	-648
no	-649
▁kid	-650
▁par	-651
▁family	-652
▁kitt	-653
ool	-654
▁smile	-655
xt	-656
▁qu	-657
hes	-658
▁place	-659
kay	-660
▁frog	-661
iz	-662
▁walk	-663
▁great	-664
▁while	-665
▁stay	-666
▁next	-667
▁tra	-668
▁unt	-669
▁strong	-670
▁sto	-671
▁bra	-672
▁forest	-673
ane	-674
ger	-675
▁pa	-676
▁squ	-677
em	-678
▁until	-679
dy	-680
▁beaut	-681
▁stick	-682
▁boat	-683
uff	-684
lease	-685
ning	-686
▁listen	-687
▁kids	-688
▁happily	-689
▁beauti	-690
can	-691
ies	-692
▁app	-693
bo	-694
▁beautiful	-695
pt	-696
▁helped	-697
▁dra	-698
▁showed	-699
▁story	-700
▁rain	-701
▁town	-702
▁z	-703
rel	-704
ak	-705
▁being	-706
ture	-707
▁rem	-708
ress	-709
▁picture	-710
▁mor	-711
ary	-712
▁di	-713
▁hat	-714
▁ad	-715
▁called	-716
age	-717
ree	-718
▁broke	-719
▁bun	-720
▁met	-721
▁stopped	-722
▁de	-723
jo	-724
▁game	-725
▁keep	-726
▁angry	-727
▁imp	-728
▁truck	-729
▁open	-730
▁sally	-731
uffy	-732
▁kitty	-733
▁soft	-734
▁yummy	-735
▁cry	-736
▁bunny	-737
▁lost	-738
▁bed	-739
vent	-740
▁mouse	-741
▁warm	-742
▁watch	-743
▁brave	-744
▁where	-745
we	-746
▁sn	-747
▁leave	-748
▁ate	-749
ished	-750
▁hole	-751
fore	-752
▁doll	-753
▁green	-754
cks	-755
owl	-756
▁couldn	-757
▁two	-758
▁also	-759
dded	-760
▁fell	-761
and	-762
llo	-763
▁face	-764
bbit	-765
gan	-766
what	-767
▁flowers	-768
▁fluffy	-769
▁noise	-770
▁before	-771
irst	-772
▁rabbit	-773
▁jack	-774
oon	-775
▁suddenly	-776
self	-777
▁slide	-778
▁squir	-779
look	-780
▁sat	-781
▁squirrel	-782
hi	-783
ired	-784
▁duck	-785
▁hear	-786
▁use	-787
▁kept	-788
les	-789
▁nodded	-790
that	-791
▁cook	-792
▁tou	-793
▁birds	-794
▁expl	-795
▁store	-796
▁hands	-797
▁pain	-798
▁sunny	-799
day	-800
when	-801
▁going	-802
▁funny	-803
▁having	-804
▁cra	-805
▁sing	-806
aybe	-807
illy	-808
▁catch	-809
ught	-810
▁yell	-811
▁think	-812
able	-813
leep	-814
then	-815
▁fix	-816
▁bre	-817
▁us	-818
ull	-819
lled	-820
▁blo	-821
▁our	-822
▁tired	-823
▁looking	-824
▁used	-825
ange	-826
▁dr	-827
▁work	-828
▁wr	-829
▁kit	-830
▁wait	-831
▁thr	-832
▁beh	-833
air	-834
thing	-835
▁ru	-836
▁please	-837
▁sound	-838
ting	-839
▁mean	-840
▁has	-841
▁remem	-842
▁pond	-843
▁flo	-844
▁first	-845
led	-846
▁ask	-847
▁others	-848
▁sna	-849
ffe	-850
hello	-851
ser	-852
▁talk	-853
▁sand	-854
chen	-855
▁kitchen	-856
ng	-857
▁tri	-858
▁remember	-859
rew	-860
▁pie	-861
▁head	-862
▁real	-863
▁wo	-864
▁eyes	-865
▁here	-866
▁import	-867
▁fav	-868
▁hop	-869
joy	-870
▁con	-871
▁right	-872
▁flower	-873
▁party	-874
▁swe	-875
▁vo	-876
▁cold	-877
▁mess	-878
ious	-879
ath	-880
▁curi	-881
▁moral	-882
▁race	-883
▁thank	-884
orn	-885
▁important	-886
▁ri	-887
▁enjoy	-888
▁shared	-889
▁okay	-890
▁ice	-891
zy	-892
ount	-893
llow	-894
▁advent	-895
▁curious	-896
▁worked	-897
▁bright	-898
▁making	-899
▁dress	-900
▁own	-901
ster	-902
uit	-903
▁mon	-904
▁tall	-905
▁sleep	-906
▁dir	-907
reed	-908
▁hid	-909
hn	-910
▁favor	-911
▁follow	-912
▁dis	-913
wow	-914
▁favorite	-915
▁thing	-916
▁began	-917
ear	-918
▁bag	-919
don	-920
▁pap	-921
co	-922
▁hill	-923
▁rest	-924
▁draw	-925
▁tell	-926
where	-927
▁yard	-928
▁grand	-929
que	-930
▁sho	-931
ben	-932
▁stop	-933
▁bel	-934
▁move	-935
▁watched	-936
▁cut	-937
▁behind	-938
ect	-939
▁night	-940
▁pick	-941
▁agreed	-942
sp	-943
▁hun	-944
ced	-945
cked	-946
▁surprise	-947
▁lion	-948
▁hot	-949
▁farm	-950
▁worry	-951
▁table	-952
▁grass	-953
▁trees	-954
▁dark	-955
▁voice	-956
▁walking	-957
▁top	-958
la	-959
▁floor	-960
ffere	-961
▁differe	-962
▁butter	-963
▁sweet	-964
ied	-965
▁song	-966
▁tail	-967
bye	-968
▁read	-969
▁lady	-970
▁shout	-971
▁colors	-972
▁mis	-973
▁forg	-974
isy	-975
▁leaves	-976
fu	-977
▁closer	-978
▁why	-979
▁cars	-980
▁da	-981
shed	-982
imes	-983
why	-984
▁turned	-985
▁needed	-986
▁wood	-987
▁tast	-988
aring	-989
▁cried	-990
after	-991
▁different	-992
▁prin	-993
▁del	-994
▁fire	-995
▁laugh	-996
▁piece	-997
▁mr	-998
▁tiny	-999
▁cr	-1000
▁does	-1001
▁hair	-1002
max	-1003
▁adventure	-1004
ered	-1005
▁hungry	-1006
▁yellow	-1007
▁feeling	-1008
▁paper	-1009
su	-1010
▁touch	-1011
▁full	-1012
sue	-1013
▁wet	-1014
▁per	-1015
▁friendly	-1016
▁sometimes	-1017
ake	-1018
ike	-1019
nts	-1020
▁swing	-1021
▁fruit	-1022
ached	-1023
▁ready	-1024
pe	-1025
▁broken	-1026
▁another	-1027
▁light	-1028
▁prom	-1029
▁pretend	-1030
▁snow	-1031
▁dance	-1032
▁jane	-1033
▁only	-1034
▁climbed	-1035
▁listened	-1036
▁bobo	-1037
▁cla	-1038
▁running	-1039
she	-1040
▁timmy	-1041
▁swim	-1042
▁gone	-1043
bbed	-1044
▁slow	-1045
▁train	-1046
ater	-1047
ppy	-1048
▁close	-1049
▁mar	-1050
▁hold	-1051
▁smell	-1052
▁ama	-1053
▁wonder	-1054
▁bus	-1055
▁amaz	-1056
▁blocks	-1057
ient	-1058
▁repl	-1059
▁em	-1060
▁butterf	-1061
▁sees	-1062
▁reached	-1063
▁wall	-1064
▁helping	-1065
▁goodbye	-1066
▁baby	-1067
▁dri	-1068
oney	-1069
▁cream	-1070
▁ste	-1071
▁fight	-1072
cket	-1073
come	-1074
▁plan	-1075
▁cool	-1076
▁glad	-1077
▁ac	-1078
▁less	-1079
av	-1080
▁been	-1081
▁fair	-1082
ather	-1083
▁pushed	-1084
iced	-1085
▁din	-1086
▁must	-1087
▁john	-1088
▁hide	-1089
▁ar	-1090
▁moment	-1091
▁gi	-1092
▁window	-1093
▁grandma	-1094
▁sit	-1095
▁balloon	-1096
▁child	-1097
▁quick	-1098
sam	-1099
▁explore	-1100
▁maybe	-1101
▁wished	-1102
▁wag	-1103
▁done	-1104
▁perf	-1105
▁buy	-1106
▁stuck	-1107
▁might	-1108
▁sig	-1109
▁bar	-1110
▁finally	-1111
▁name	-1112
▁trying	-1113
▁bit	-1114
ized	-1115
▁apple	-1116
▁coming	-1117
▁fall	-1118
▁plant	-1119
▁owl	-1120
▁pink	-1121
▁win	-1122
▁scary	-1123
ass	-1124
▁doing	-1125
ara	-1126
▁looks	-1127
▁dream	-1128
▁build	-1129
▁underst	-1130
▁dirty	-1131
▁spl	-1132
▁held	-1133
mia	-1134
▁mat	-1135
ddy	-1136
oom	-1137
ames	-1138
▁wise	-1139
ash	-1140
▁butterfly	-1141
▁left	-1142
▁sure	-1143
▁count	-1144
▁shouted	-1145
▁replied	-1146
▁through	-1147
▁reach	-1148
avy	-1149
▁pat	-1150
▁land	-1151
▁air	-1152
▁dro	-1153
▁everywhere	-1154
▁bran	-1155
▁three	-1156
▁grow	-1157
▁lun	-1158
▁treat	-1159
▁brother	-1160
▁pulled	-1161
key	-1162
▁bell	-1163
▁woods	-1164
▁chair	-1165
af	-1166
▁pet	-1167
sk	-1168
▁cloud	-1169
▁seen	-1170
▁mum	-1171
▁ve	-1172
▁clapped	-1173
▁cup	-1174
oh	-1175
ield	-1176
▁fill	-1177
ins	-1178
suddenly	-1179
▁swam	-1180
ag	-1181
▁job	-1182
▁colorful	-1183
outh	-1184
▁pen	-1185
▁remembered	-1186
▁bigger	-1187
▁nest	-1188
▁mouth	-1189
ix	-1190
okay	-1191
zz	-1192
▁join	-1193
▁lesson	-1194
▁cre	-1195
oup	-1196
room	-1197
▁waved	-1198
▁grabbed	-1199
▁stayed	-1200
▁paint	-1201
▁cont	-1202
▁clot	-1203
cle	-1204
▁clothes	-1205
▁quickly	-1206
ower	-1207
this	-1208
▁daisy	-1209
▁word	-1210
▁waited	-1211
▁cand	-1212
art	-1213
▁tea	-1214
anna	-1215
▁games	-1216
▁cast	-1217
▁gent	-1218
▁blew	-1219
▁pur	-1220
▁set	-1221
▁enjoyed	-1222
▁noticed	-1223
ries	-1224
ation	-1225
▁books	-1226
▁likes	-1227
▁mus	-1228
▁mark	-1229
▁pictures	-1230
▁sea	-1231
▁heavy	-1232
▁today	-1233
▁anything	-1234
▁alone	-1235
asure	-1236
▁world	-1237
▁hopped	-1238
▁turns	-1239
▁bee	-1240
▁year	-1241
▁pot	-1242
do	-1243
▁mix	-1244
▁je	-1245
der	-1246
orm	-1247
▁bot	-1248
ze	-1249
▁ju	-1250
▁arm	-1251
us	-1252
▁bike	-1253
▁lila	-1254
▁tight	-1255
set	-1256
▁forgot	-1257
▁brown	-1258
▁won	-1259
fr	-1260
▁buddy	-1261
▁tower	-1262
▁threw	-1263
man	-1264
▁himself	-1265
▁followed	-1266
▁ride	-1267
to	-1268
▁fox	-1269
amp	-1270
ph	-1271
▁comp	-1272
less	-1273
▁white	-1274
▁key	-1275
ctor	-1276
row	-1277
▁wrong	-1278
ner	-1279
▁makes	-1280
▁black	-1281
▁break	-1282
▁prince	-1283
▁music	-1284
▁deep	-1285
thy	-1286
▁pol	-1287
▁na	-1288
▁delic	-1289
eddy	-1290
".	-1291
spot	-1292
ued	-1293
sara	-1294
ves	-1295
▁ant	-1296
▁castle	-1297
▁pare	-1298
▁sharing	-1299
ons	-1300
▁wear	-1301
lucy	-1302
iet	-1303
▁hit	-1304
▁whis	-1305
▁quiet	-1306
▁round	-1307
oun	-1308
▁stu	-1309
bble	-1310
▁someone	-1311
▁monster	-1312
ance	-1313
▁leaf	-1314
▁danced	-1315
▁vis	-1316
▁nap	-1317
▁wants	-1318
▁daddy	-1319
▁understand	-1320
ang	-1321
▁bowl	-1322
▁bor	-1323
rot	-1324
▁king	-1325
▁everything	-1326
▁cookies	-1327
▁talked	-1328
▁dry	-1329
▁faster	-1330
icy	-1331
ren	-1332
▁sarah	-1333
fully	-1334
▁joe	-1335
ches	-1336
▁brought	-1337
▁leg	-1338
▁boun	-1339
▁el	-1340
ross	-1341
▁well	-1342
▁sign	-1343
▁side	-1344
tle	-1345
▁smart	-1346
▁rocks	-1347
ister	-1348
▁ele	-1349
▁poin	-1350
▁butt	-1351
▁sec	-1352
▁shap	-1353
▁que	-1354
▁happen	-1355
▁branch	-1356
▁really	-1357
▁finished	-1358
▁dinner	-1359
▁sister	-1360
ards	-1361
gg	-1362
▁inst	-1363
▁flying	-1364
▁worried	-1365
▁spr	-1366
▁contin	-1367
▁wel	-1368
▁visit	-1369
▁pro	-1370
▁gu	-1371
sc	-1372
▁beach	-1373
▁secret	-1374
ple	-1375
▁tommy	-1376
▁ear	-1377
▁gift	-1378
▁perfect	-1379
▁silly	-1380
▁river	-1381
▁danger	-1382
▁shin	-1383
▁fur	-1384
▁pig	-1385
▁children	-1386
▁teddy	-1387
ipp	-1388
▁field	-1389
▁filled	-1390
▁else	-1391
▁smiles	-1392
while	-1393
▁eating	-1394
▁wish	-1395
▁start	-1396
▁pudd	-1397
▁sang	-1398
▁pull	-1399
▁free	-1400
▁pieces	-1401
▁realized	-1402
▁promised	-1403
▁billy	-1404
▁cow	-1405
▁continued	-1406
ord	-1407
▁yes	-1408
▁bite	-1409
gy	-1410
▁carefully	-1411
iss	-1412
▁parents	-1413
ence	-1414
ated	-1415
itting	-1416
▁zoom	-1417
maybe	-1418
▁jar	-1419
▁drag	-1420
▁orange	-1421
ast	-1422
▁blank	-1423
ead	-1424
▁mud	-1425
▁crab	-1426
▁crying	-1427
▁blanket	-1428
▁without	-1429
▁fairy	-1430
▁enough	-1431
▁soup	-1432
▁rolled	-1433
from	-1434
▁sail	-1435
▁snake	-1436
▁instead	-1437
▁drink	-1438
imi	-1439
ses	-1440
▁throw	-1441
▁welcome	-1442
▁laughing	-1443
▁purple	-1444
▁roll	-1445
▁words	-1446
▁amazing	-1447
▁doctor	-1448
iant	-1449
▁bath	-1450
▁miss	-1451
▁past	-1452
▁bottle	-1453
▁monkey	-1454
▁money	-1455
▁mail	-1456
fort	-1457
ucky	-1458
▁whe	-1459
his	-1460
amy	-1461
▁barked	-1462
▁att	-1463
▁wagged	-1464
chool	-1465
▁bow	-1466
▁paw	-1467
▁moved	-1468
iver	-1469
▁mother	-1470
ises	-1471
▁candy	-1472
▁asks	-1473
▁getting	-1474
▁closed	-1475
▁school	-1476
just	-1477
.""	-1478
ich	-1479
▁sitting	-1480
▁morning	-1481
▁owner	-1482
▁lone	-1483
▁higher	-1484
fl	-1485
▁treasure	-1486
▁dangerous	-1487
▁lonely	-1488
▁apples	-1489
▁living	-1490
vel	-1491
▁shop	-1492
▁strange	-1493
ased	-1494
▁shining	-1495
▁road	-1496
▁creat	-1497
▁pre	-1498
▁shoes	-1499
▁stre	-1500
ible	-1501
os	-1502
▁talking	-1503
althy	-1504
▁caught	-1505
▁egg	-1506
please	-1507
ere	-1508
fish	-1509
▁chee	-1510
▁fan	-1511
▁lake	-1512
▁runs	-1513
▁letter	-1514
▁wings	-1515
▁farmer	-1516
▁mad	-1517
▁whist	-1518
▁dragon	-1519
▁har	-1520
▁bask	-1521
▁basket	-1522
▁stand	-1523
▁stone	-1524
ok	-1525
▁belie	-1526
▁thinks	-1527
▁delicious	-1528
▁mimi	-1529
▁nose	-1530
fin	-1531
▁puddle	-1532
▁mine	-1533
ey	-1534
▁bat	-1535
▁years	-1536
▁same	-1537
board	-1538
ire	-1539
▁cho	-1540
▁days	-1541
▁button	-1542
▁sear	-1543
▁coat	-1544
▁fit	-1545
▁bring	-1546
▁ph	-1547
▁gentle	-1548
▁hor	-1549
▁cray	-1550
ade	-1551
▁pill	-1552
▁kite	-1553
▁singing	-1554
▁scream	-1555
▁heart	-1556
sw	-1557
sy	-1558
▁min	-1559
phant	-1560
▁shell	-1561
▁vill	-1562
▁jen	-1563
gly	-1564
▁tasty	-1565
▁elephant	-1566
▁trou	-1567
ined	-1568
▁herself	-1569
▁answ	-1570
▁hoped	-1571
▁wore	-1572
▁swings	-1573
bow	-1574
▁rob	-1575
▁push	-1576
▁belong	-1577
ove	-1578
kers	-1579
▁carrot	-1580
▁bush	-1581
▁teach	-1582
▁joy	-1583
ball	-1584
▁arri	-1585
▁woke	-1586
ughty	-1587
▁puppy	-1588
▁naughty	-1589
ract	-1590
▁dropped	-1591
▁coll	-1592
ama	-1593
▁jim	-1594
ier	-1595
▁pile	-1596
red	-1597
▁hiding	-1598
isa	-1599
▁cour	-1600
pping	-1601
▁part	-1602
cher	-1603
ming	-1604
▁lunch	-1605
▁spin	-1606
▁sack	-1607
▁kno	-1608
▁seem	-1609
▁twins	-1610
▁rainbow	-1611
cing	-1612
erry	-1613
ale	-1614
▁pers	-1615
irt	-1616
▁course	-1617
▁juice	-1618
▁shapes	-1619
▁cheered	-1620
▁grew	-1621
▁spark	-1622
▁nut	-1623
bob	-1624
▁slowly	-1625
▁rope	-1626
fused	-1627
▁village	-1628
▁bubble	-1629
▁birth	-1630
▁mil	-1631
▁birthday	-1632
▁spoon	-1633
▁rel	-1634
▁res	-1635
▁shook	-1636
▁street	-1637
oc	-1638
▁bench	-1639
▁cheese	-1640
br	-1641
▁fence	-1642
▁cute	-1643
▁des	-1644
good	-1645
▁whiskers	-1646
▁touched	-1647
▁war	-1648
idge	-1649
col	-1650
▁emma	-1651
▁ig	-1652
▁lucky	-1653
▁true	-1654
▁seed	-1655
▁teacher	-1656
▁corn	-1657
▁arrived	-1658
▁most	-1659
▁carry	-1660
▁forever	-1661
▁able	-1662
mommy	-1663
mm	-1664
▁few	-1665
▁plane	-1666
▁eas	-1667
▁num	-1668
llie	-1669
▁sounds	-1670
▁power	-1671
▁bugs	-1672
blem	-1673
▁problem	-1674
▁inc	-1675
▁dolls	-1676
▁wonderful	-1677
▁promise	-1678
▁busy	-1679
▁wra	-1680
not	-1681
ato	-1682
irp	-1683
▁robot	-1684
▁feels	-1685
▁milk	-1686
app	-1687
▁bread	-1688
▁neck	-1689
▁pop	-1690
▁spe	-1691
ian	-1692
▁shy	-1693
▁turt	-1694
▁rec	-1695
▁shake	-1696
ountain	-1697
▁band	-1698
ipped	-1699
▁believe	-1700
▁pocket	-1701
ost	-1702
▁helpful	-1703
igh	-1704
▁cave	-1705
ouch	-1706
eared	-1707
ens	-1708
▁ugly	-1709
▁ob	-1710
▁patient	-1711
ol	-1712
▁storm	-1713
▁live	-1714
▁honey	-1715
▁holding	-1716
▁shar	-1717
▁shr	-1718
▁towards	-1719
▁bella	-1720
▁upset	-1721
▁sharp	-1722
umpy	-1723
▁gray	-1724
adow	-1725
▁princess	-1726
?""	-1727
▁cir	-1728
▁cover	-1729
▁turtle	-1730
▁disapp	-1731
▁remy	-1732
▁stories	-1733
cce	-1734
igg	-1735
read	-1736
lla	-1737
▁late	-1738
▁succe	-1739
▁noises	-1740
ub	-1741
▁balls	-1742
▁seat	-1743
▁driver	-1744
▁dist	-1745
▁dirt	-1746
▁chirp	-1747
▁spid	-1748
▁snack	-1749
▁glow	-1750
▁meet	-1751
▁bucket	-1752
▁young	-1753
▁note	-1754
▁amazed	-1755
▁molly	-1756
▁lem	-1757
▁treats	-1758
sure	-1759
▁magical	-1760
▁seek	-1761
▁lisa	-1762
ator	-1763
alm	-1764
▁sandw	-1765
▁kitten	-1766
▁mist	-1767
fortable	-1768
▁trip	-1769
now	-1770
▁taking	-1771
ourn	-1772
▁splas	-1773
▁fold	-1774
▁journ	-1775
▁whistle	-1776
▁ima	-1777
▁puzz	-1778
▁mach	-1779
▁fighting	-1780
▁horse	-1781
▁wild	-1782
▁organ	-1783
ling	-1784
unt	-1785
▁later	-1786
▁cookie	-1787
▁hugs	-1788
▁sug	-1789
wel	-1790
oose	-1791
▁wheel	-1792
▁cloth	-1793
▁spicy	-1794
epend	-1795
of	-1796
▁net	-1797
▁rude	-1798
iling	-1799
▁ann	-1800
▁string	-1801
▁snowman	-1802
▁drove	-1803
▁stars	-1804
▁huge	-1805
▁sal	-1806
▁coin	-1807
▁craw	-1808
▁sne	-1809
hey	-1810
▁bone	-1811
▁ash	-1812
▁grumpy	-1813
▁inv	-1814
pper	-1815
▁forget	-1816
▁moon	-1817
▁life	-1818
▁wide	-1819
▁jill	-1820
▁spider	-1821
▁fred	-1822
▁card	-1823
▁cannot	-1824
▁path	-1825
▁sick	-1826
finally	-1827
▁hel	-1828
▁foot	-1829
ors	-1830
▁hope	-1831
▁pillow	-1832
▁songs	-1833
ize	-1834
▁joke	-1835
▁bark	-1836
ular	-1837
▁cart	-1838
▁tun	-1839
▁bri	-1840
▁giant	-1841
▁last	-1842
▁fixed	-1843
oop	-1844
▁boss	-1845
▁nod	-1846
▁comes	-1847
▁peace	-1848
▁smo	-1849
fted	-1850
▁ring	-1851
▁taste	-1852
den	-1853
▁machine	-1854
▁thin	-1855
later	-1856
▁wave	-1857
▁ser	-1858
▁drive	-1859
▁grab	-1860
▁fle	-1861
▁splash	-1862
▁leo	-1863
▁sel	-1864
▁worm	-1865
▁confused	-1866
▁hidden	-1867
▁write	-1868
▁shelf	-1869
erest	-1870
▁wasn	-1871
▁rad	-1872
▁landed	-1873
▁change	-1874
flower	-1875
▁sour	-1876
▁beak	-1877
▁val	-1878
ert	-1879
▁fruits	-1880
▁myster	-1881
est	-1882
▁interest	-1883
▁chased	-1884
▁smooth	-1885
ity	-1886
▁mama	-1887
▁adventures	-1888
▁oven	-1889
▁stepped	-1890
▁missed	-1891
▁takes	-1892
▁sheep	-1893
▁step	-1894
up	-1895
john	-1896
▁selfish	-1897
▁bounce	-1898
▁ce	-1899
kin	-1900
▁messy	-1901
▁across	-1902
▁doggy	-1903
▁ent	-1904
▁exp	-1905
▁rose	-1906
▁tie	-1907
▁ban	-1908
▁lay	-1909
▁sticks	-1910
▁luna	-1911
▁drew	-1912
▁bought	-1913
pect	-1914
box	-1915
▁wash	-1916
bled	-1917
▁sleepy	-1918
▁pour	-1919
▁ducks	-1920
▁grate	-1921
▁feather	-1922
▁emp	-1923
▁av	-1924
▁legs	-1925
▁fil	-1926
ife	-1927
ugg	-1928
▁slid	-1929
▁empty	-1930
elly	-1931
▁zoo	-1932
▁drum	-1933
▁shirt	-1934
▁pan	-1935
▁lemon	-1936
▁phone	-1937
ird	-1938
amed	-1939
▁fing	-1940
▁grateful	-1941
ery	-1942
▁imag	-1943
▁wolf	-1944
▁smelly	-1945
▁clever	-1946
▁along	-1947
▁save	-1948
ever	-1949
▁spo	-1950
ions	-1951
▁interesting	-1952
▁uni	-1953
▁watching	-1954
▁med	-1955
▁ign	-1956
▁banan	-1957
▁nothing	-1958
▁dogs	-1959
ung	-1960
ars	-1961
▁clouds	-1962
▁though	-1963
▁plate	-1964
yard	-1965
▁line	-1966
▁calm	-1967
▁faces	-1968
▁act	-1969
▁lift	-1970
▁spray	-1971
▁mary	-1972
▁sque	-1973
▁backyard	-1974
▁seemed	-1975
▁mot	-1976
▁prot	-1977
▁fancy	-1978
▁jelly	-1979
▁whole	-1980
▁zip	-1981
▁tid	-1982
▁supp	-1983
▁chew	-1984
▁quest	-1985
▁puzzle	-1986
▁arms	-1987
▁healthy	-1988
▁rocket	-1989
ward	-1990
▁finish	-1991
▁forgive	-1992
▁trouble	-1993
dge	-1994
▁explain	-1995
▁easy	-1996
ult	-1997
▁lar	-1998
▁jewel	-1999
▁pract	-2000
▁working	-2001
▁pin	-2002
▁mind	-2003
▁fake	-2004
▁chirpy	-2005
▁scar	-2006
▁pas	-2007
▁crayons	-2008
▁ship	-2009
▁wondered	-2010
bar	-2011
▁jerry	-2012
ont	-2013
▁queen	-2014
ken	-2015
onest	-2016
▁anyone	-2017
▁pool	-2018
▁longer	-2019
iger	-2020
▁yog	-2021
ope	-2022
▁front	-2023
▁bossy	-2024
▁gives	-2025
▁pack	-2026
ually	-2027
▁such	-2028
irr	-2029
pa	-2030
ment	-2031
▁honest	-2032
izz	-2033
▁tidy	-2034
▁event	-2035
jack	-2036
▁neigh	-2037
▁saved	-2038
▁smelled	-2039
ned	-2040
▁stret	-2041
▁van	-2042
rass	-2043
barrass	-2044
eth	-2045
▁embarrass	-2046
iting	-2047
▁kick	-2048
▁cozy	-2049
▁weak	-2050
▁puts	-2051
▁bubbles	-2052
▁ollie	-2053
unk	-2054
▁bru	-2055
▁print	-2056
▁plants	-2057
▁neighb	-2058
▁momo	-2059
▁sol	-2060
▁gently	-2061
▁these	-2062
▁rich	-2063
▁explor	-2064
orrow	-2065
▁af	-2066
▁mistake	-2067
▁jumping	-2068
soon	-2069
▁cross	-2070
▁lad	-2071
▁pointed	-2072
▁lock	-2073
▁stood	-2074
▁onto	-2075
▁waiting	-2076
icken	-2077
scap	-2078
▁cheer	-2079
▁chicken	-2080
▁tomorrow	-2081
▁wing	-2082
ones	-2083
turn	-2084
▁deer	-2085
▁bal	-2086
▁lovely	-2087
▁large	-2088
!""	-2089
itch	-2090
▁couch	-2091
ughter	-2092
▁dish	-2093
▁ants	-2094
▁match	-2095
oof	-2096
era	-2097
ork	-2098
▁places	-2099
▁ladder	-2100
▁return	-2101
raid	-2102
▁trust	-2103
▁afraid	-2104
▁cleaned	-2105
▁building	-2106
▁sandwich	-2107
▁person	-2108
▁wip	-2109
▁pizz	-2110
▁law	-2111
▁hum	-2112
izzy	-2113
▁pretended	-2114
gest	-2115
▁gather	-2116
▁boring	-2117
mmer	-2118
▁search	-2119
▁furry	-2120
▁wom	-2121
▁daughter	-2122
▁woman	-2123
▁jog	-2124
▁teeth	-2125
▁ok	-2126
▁gen	-2127
▁scarf	-2128
▁pri	-2129
▁number	-2130
▁swimming	-2131
▁stra	-2132
▁goes	-2133
uce	-2134
itty	-2135
▁splashed	-2136
▁lazy	-2137
oph	-2138
▁pizza	-2139
ffic	-2140
▁loves	-2141
▁screamed	-2142
▁answer	-2143
kitty	-2144
ek	-2145
▁ja	-2146
▁ashamed	-2147
▁clown	-2148
hin	-2149
▁nearby	-2150
▁fear	-2151
lo	-2152
▁hello	-2153
▁appeared	-2154
▁powerful	-2155
▁hang	-2156
eter	-2157
▁flag	-2158
vous	-2159
▁wand	-2160
bby	-2161
▁chase	-2162
▁dizzy	-2163
▁motor	-2164
▁chocol	-2165
▁success	-2166
▁tv	-2167
▁polite	-2168
▁wearing	-2169
▁creative	-2170
▁noisy	-2171
com	-2172
▁dig	-2173
▁matter	-2174
▁circle	-2175
▁ner	-2176
▁bobby	-2177
▁tool	-2178
▁shadow	-2179
▁nervous	-2180
ado	-2181
▁smiling	-2182
▁test	-2183
▁sold	-2184
▁mic	-2185
▁gold	-2186
▁tu	-2187
icked	-2188
aur	-2189
stop	-2190
▁mel	-2191
▁chocolate	-2192
▁poor	-2193
▁class	-2194
osaur	-2195
▁liz	-2196
▁drank	-2197
▁tries	-2198
▁map	-2199
▁dinosaur	-2200
▁gener	-2201
▁impress	-2202
▁march	-2203
▁jimmy	-2204
▁knee	-2205
▁char	-2206
▁mirr	-2207
▁balloons	-2208
▁icy	-2209
▁rare	-2210
▁protect	-2211
▁jam	-2212
▁bald	-2213
▁respect	-2214
▁hero	-2215
▁gun	-2216
▁reg	-2217
▁mirror	-2218
▁carried	-2219
ensive	-2220
▁pump	-2221
▁soap	-2222
ute	-2223
▁whale	-2224
▁expensive	-2225
ager	-2226
ness	-2227
▁mysterious	-2228
▁hur	-2229
▁wis	-2230
▁snee	-2231
iff	-2232
▁cri	-2233
erly	-2234
ila	-2235
▁gate	-2236
▁weird	-2237
▁speed	-2238
sally	-2239
▁benny	-2240
▁kiss	-2241
▁towel	-2242
issors	-2243
▁sugar	-2244
▁tape	-2245
help	-2246
▁scissors	-2247
▁feet	-2248
▁generous	-2249
itter	-2250
▁disco	-2251
nic	-2252
▁tick	-2253
▁brush	-2254
▁lead	-2255
▁dancing	-2256
▁boot	-2257
▁picnic	-2258
▁embarrassed	-2259
▁journey	-2260
rag	-2261
▁fat	-2262
▁peaceful	-2263
▁tent	-2264
▁clap	-2265
scape	-2266
▁glue	-2267
▁eager	-2268
▁tasted	-2269
▁yelled	-2270
mb	-2271
lila	-2272
▁rough	-2273
▁bridge	-2274
▁stir	-2275
▁decor	-2276
ote	-2277
owed	-2278
▁crown	-2279
▁closet	-2280
▁shark	-2281
▁ber	-2282
▁lamp	-2283
ume	-2284
airs	-2285
▁scare	-2286
▁gigg	-2287
▁vase	-2288
▁cele	-2289
▁pepper	-2290
▁relie	-2291
lves	-2292
▁eld	-2293
▁tele	-2294
▁whisp	-2295
▁celebr	-2296
▁blow	-2297
▁sco	-2298
▁log	-2299
▁bean	-2300
▁pay	-2301
▁ducky	-2302
ndy	-2303
▁painted	-2304
▁wouldn	-2305
▁berries	-2306
▁spread	-2307
▁mixed	-2308
▁cage	-2309
▁bake	-2310
▁mountain	-2311
▁drawing	-2312
▁grace	-2313
▁norm	-2314
getable	-2315
▁adm	-2316
▁famous	-2317
▁become	-2318
▁vegetable	-2319
ina	-2320
▁sock	-2321
▁knocked	-2322
▁kicked	-2323
▁glass	-2324
ustr	-2325
asp	-2326
▁incred	-2327
▁wrap	-2328
▁normal	-2329
▁lose	-2330
▁ignor	-2331
▁mighty	-2332
▁paws	-2333
▁clock	-2334
▁group	-2335
▁fine	-2336
▁team	-2337
▁thick	-2338
▁frustr	-2339
▁elderly	-2340
▁roar	-2341
▁clear	-2342
aw	-2343
▁corner	-2344
▁which	-2345
▁cone	-2346
▁incredible	-2347
▁block	-2348
robe	-2349
▁kis	-2350
▁moms	-2351
▁twist	-2352
▁space	-2353
▁balance	-2354
▁prese	-2355
▁fright	-2356
▁pip	-2357
▁frag	-2358
▁organized	-2359
▁branches	-2360
▁fool	-2361
▁sword	-2362
▁feed	-2363
▁horn	-2364
alous	-2365
▁sell	-2366
▁jealous	-2367
▁yarn	-2368
▁bloom	-2369
▁ter	-2370
▁frustrated	-2371
▁fragile	-2372
▁grandpa	-2373
▁burn	-2374
▁understood	-2375
▁stubb	-2376
▁wake	-2377
▁stubborn	-2378
▁mitt	-2379
ten	-2380
▁eventually	-2381
▁hose	-2382
▁shoe	-2383
▁fier	-2384
me	-2385
▁spent	-2386
cient	-2387
▁coco	-2388
▁fierce	-2389
▁taught	-2390
▁clay	-2391
▁pray	-2392
▁ancient	-2393
▁creature	-2394
▁chest	-2395
▁spoiled	-2396
zed	-2397
▁relieved	-2398
▁barn	-2399
▁measure	-2400
▁pumpkin	-2401
▁terri	-2402
▁mummy	-2403
▁goat	-2404
▁square	-2405
▁frightened	-2406
▁tomato	-2407
oomy	-2408
▁eggs	-2409
▁toug	-2410
▁unique	-2411
▁ord	-2412
▁comfortable	-2413
dle	-2414
▁unu	-2415
▁pass	-2416
▁wagon	-2417
▁straw	-2418
▁dull	-2419
▁unusu	-2420
bin	-2421
▁foolish	-2422
sie	-2423
▁police	-2424
▁breath	-2425
▁useful	-2426
▁exploring	-2427
▁dead	-2428
▁clum	-2429
▁unusual	-2430
▁dug	-2431
▁discover	-2432
▁finding	-2433
▁exam	-2434
▁spring	-2435
▁wrote	-2436
if	-2437
ym	-2438
▁waves	-2439
▁nosy	-2440
▁clumsy	-2441
lace	-2442
▁hears	-2443
▁cabin	-2444
▁tough	-2445
▁tells	-2446
▁necklace	-2447
▁ella	-2448
▁jet	-2449
▁buzz	-2450
▁unk	-2451
▁searched	-2452
▁washed	-2453
▁pir	-2454
yal	-2455
▁bathroom	-2456
ray	-2457
▁board	-2458
▁andy	-2459
▁crazy	-2460
▁swan	-2461
anged	-2462
▁drop	-2463
▁bitter	-2464
nown	-2465
▁ind	-2466
▁asking	-2467
▁ol	-2468
▁thankful	-2469
▁poppy	-2470
berry	-2471
▁diffic	-2472
cil	-2473
▁unknown	-2474
▁rat	-2475
dad	-2476
▁add	-2477
▁aunt	-2478
▁cats	-2479
▁'	-2480
▁mill	-2481
▁pencil	-2482
▁hoop	-2483
▁cheap	-2484
▁finger	-2485
▁loyal	-2486
▁cher	-2487
▁covered	-2488
together	-2489
▁witch	-2490
▁difficult	-2491
alk	-2492
▁tiger	-2493
go	-2494
ha	-2495
▁gloomy	-2496
light	-2497
▁wealthy	-2498
▁dove	-2499
als	-2500
ac	-2501
▁potato	-2502
shine	-2503
▁guit	-2504
▁ending	-2505
▁flex	-2506
▁salad	-2507
▁yours	-2508
▁sort	-2509
▁rex	-2510
▁terrible	-2511
▁joined	-2512
▁mov	-2513
anut	-2514
shion	-2515
aking	-2516
▁value	-2517
gu	-2518
▁sammy	-2519
▁bill	-2520
▁sunshine	-2521
▁nuts	-2522
▁hairy	-2523
ground	-2524
▁mask	-2525
who	-2526
▁peanut	-2527
▁moving	-2528
selves	-2529
▁knowing	-2530
▁body	-2531
▁changed	-2532
ond	-2533
▁record	-2534
▁exciting	-2535
ormous	-2536
▁flexible	-2537
▁marble	-2538
▁enormous	-2539
▁jolly	-2540
▁unlo	-2541
▁guitar	-2542
▁shoot	-2543
land	-2544
▁acorn	-2545
▁stri	-2546
irsty	-2547
▁adventur	-2548
▁yourself	-2549
▁cro	-2550
▁remind	-2551
▁stuff	-2552
▁bored	-2553
▁knife	-2554
▁adventurous	-2555
▁smaller	-2556
▁ang	-2557
▁hats	-2558
▁squee	-2559
▁delicate	-2560
▁solve	-2561
▁dough	-2562
▁brill	-2563
▁whenever	-2564
ying	-2565
▁cost	-2566
▁perform	-2567
▁snacks	-2568
▁brilliant	-2569
gust	-2570
▁shore	-2571
▁nods	-2572
▁banana	-2573
▁thirsty	-2574
▁frown	-2575
▁cube	-2576
▁mailbox	-2577
bers	-2578
▁disgust	-2579
oura	-2580
▁seeds	-2581
▁collect	-2582
ory	-2583
▁stat	-2584
▁counted	-2585
▁asleep	-2586
pes	-2587
▁crane	-2588
aven	-2589
▁heal	-2590
▁trick	-2591
iness	-2592
▁flash	-2593
▁jung	-2594
▁er	-2595
▁neighbor	-2596
▁uncle	-2597
▁jungle	-2598
erp	-2599
ilt	-2600
ready	-2601
▁market	-2602
▁stage	-2603
▁shiver	-2604
▁umb	-2605
▁explained	-2606
▁fridge	-2607
▁gem	-2608
▁umbre	-2609
▁disgusting	-2610
▁lab	-2611
ates	-2612
erpill	-2613
▁caterpill	-2614
▁goose	-2615
▁rela	-2616
▁relax	-2617
▁four	-2618
▁desig	-2619
▁suit	-2620
▁sunflower	-2621
inal	-2622
sor	-2623
iddle	-2624
▁stup	-2625
▁island	-2626
▁orig	-2627
▁stupid	-2628
▁gar	-2629
▁times	-2630
▁shine	-2631
▁jenny	-2632
▁harm	-2633
▁magn	-2634
sorry	-2635
ict	-2636
corn	-2637
▁medic	-2638
imp	-2639
▁cam	-2640
▁stove	-2641
edient	-2642
▁original	-2643
▁independ	-2644
▁depend	-2645
▁scr	-2646
▁penny	-2647
▁batter	-2648
▁popcorn	-2649
▁raven	-2650
▁stamp	-2651
▁rug	-2652
▁comb	-2653
▁vegetables	-2654
▁sighed	-2655
▁medicine	-2656
▁stones	-2657
▁sauce	-2658
▁carrots	-2659
▁careless	-2660
most	-2661
▁study	-2662
▁jeep	-2663
how	-2664
▁cries	-2665
▁successful	-2666
▁almost	-2667
▁obedient	-2668
▁meal	-2669
▁triang	-2670
▁caterpillar	-2671
▁statue	-2672
▁independent	-2673
▁middle	-2674
▁fearful	-2675
▁pebble	-2676
▁smoke	-2677
met	-2678
▁parrot	-2679
▁pasta	-2680
▁escape	-2681
▁serious	-2682
▁fork	-2683
▁bedroom	-2684
▁helmet	-2685
▁olive	-2686
▁gets	-2687
▁fountain	-2688
▁compet	-2689
▁umbrella	-2690
▁dest	-2691
▁filthy	-2692
▁mole	-2693
▁hay	-2694
▁jacket	-2695
▁standing	-2696
cer	-2697
▁belonged	-2698
▁borrow	-2699
▁prize	-2700
▁houses	-2701
erable	-2702
▁steal	-2703
▁miserable	-2704
▁belt	-2705
▁painting	-2706
▁choose	-2707
io	-2708
▁brace	-2709
▁waff	-2710
▁bracelet	-2711
▁raced	-2712
▁taken	-2713
▁fig	-2714
▁crayon	-2715
▁point	-2716
▁toast	-2717
▁impressive	-2718
nel	-2719
▁tank	-2720
▁dependable	-2721
▁magnet	-2722
▁mush	-2723
▁tied	-2724
ours	-2725
▁spotted	-2726
iable	-2727
▁lifted	-2728
▁angel	-2729
▁slipped	-2730
▁muff	-2731
▁scale	-2732
▁thoughtful	-2733
▁using	-2734
▁reliable	-2735
▁stretch	-2736
▁tor	-2737
▁garage	-2738
▁built	-2739
▁pant	-2740
▁boats	-2741
▁croco	-2742
▁hammer	-2743
▁eng	-2744
▁pian	-2745
▁crawled	-2746
inside	-2747
▁cheerful	-2748
▁bottom	-2749
▁present	-2750
▁crack	-2751
▁guess	-2752
▁moder	-2753
▁picks	-2754
▁piano	-2755
berries	-2756
▁shows	-2757
▁dolp	-2758
▁pear	-2759
dile	-2760
▁hurts	-2761
inary	-2762
▁melon	-2763
▁mushroom	-2764
ident	-2765
▁crocodile	-2766
▁modern	-2767
pet	-2768
▁squash	-2769
pack	-2770
▁arrow	-2771
xi	-2772
▁cryst	-2773
▁tunnel	-2774
▁gum	-2775
▁jug	-2776
cream	-2777
▁beet	-2778
▁hopping	-2779
▁spike	-2780
▁lean	-2781
ail	-2782
ose	-2783
▁flute	-2784
▁sink	-2785
▁movie	-2786
ges	-2787
▁popular	-2788
▁tears	-2789
oin	-2790
icop	-2791
icopter	-2792
▁pige	-2793
▁helicopter	-2794
▁competit	-2795
▁loll	-2796
▁ones	-2797
iv	-2798
▁humble	-2799
▁torn	-2800
▁press	-2801
▁rid	-2802
▁needs	-2803
ipop	-2804
▁taxi	-2805
▁lollipop	-2806
▁troubled	-2807
▁tricks	-2808
▁playful	-2809
▁locked	-2810
▁low	-2811
▁cap	-2812
▁uncom	-2813
▁kissed	-2814
▁acc	-2815
▁pus	-2816
▁uncomfortable	-2817
▁twig	-2818
▁disappoin	-2819
amond	-2820
bra	-2821
▁wander	-2822
host	-2823
▁diamond	-2824
ony	-2825
▁ghost	-2826
cles	-2827
▁tooth	-2828
▁anx	-2829
▁pants	-2830
▁bull	-2831
▁wrapped	-2832
their	-2833
▁fis	-2834
▁mop	-2835
▁helps	-2836
▁rub	-2837
▁camera	-2838
▁anxious	-2839
▁deaf	-2840
▁cact	-2841
▁lizard	-2842
▁ruined	-2843
atter	-2844
▁env	-2845
▁quar	-2846
▁happiness	-2847
▁may	-2848
▁bees	-2849
▁aer	-2850
▁triangle	-2851
ilty	-2852
▁cere	-2853
opl	-2854
▁guilty	-2855
▁aeropl	-2856
cut	-2857
▁earth	-2858
▁boys	-2859
▁helpless	-2860
▁crystal	-2861
▁comet	-2862
▁cop	-2863
▁wire	-2864
▁walks	-2865
▁beetle	-2866
▁nail	-2867
▁passed	-2868
cean	-2869
▁radio	-2870
▁ocean	-2871
▁meant	-2872
▁univer	-2873
▁melt	-2874
▁candle	-2875
ti	-2876
▁hunt	-2877
▁shape	-2878
▁tire	-2879
▁jake	-2880
▁harmless	-2881
▁rep	-2882
▁quarrel	-2883
▁ordinary	-2884
umpet	-2885
▁collar	-2886
▁answered	-2887
▁loop	-2888
▁trumpet	-2889
▁tag	-2890
▁flashlight	-2891
▁cereal	-2892
▁engine	-2893
▁harder	-2894
▁poured	-2895
▁comput	-2896
▁persist	-2897
▁dust	-2898
▁scoot	-2899
▁cactus	-2900
reen	-2901
▁mug	-2902
▁office	-2903
▁yogurt	-2904
het	-2905
▁invited	-2906
▁compass	-2907
▁design	-2908
▁spill	-2909
▁avoc	-2910
▁disappointed	-2911
▁shade	-2912
▁lit	-2913
▁spend	-2914
▁emily	-2915
ief	-2916
every	-2917
▁cocoa	-2918
▁barber	-2919
▁figure	-2920
aghet	-2921
▁pale	-2922
aghetti	-2923
▁giving	-2924
▁eras	-2925
▁regular	-2926
▁licked	-2927
▁sheet	-2928
▁yaw	-2929
▁pipe	-2930
▁skip	-2931
▁spaghetti	-2932
▁tur	-2933
▁whispered	-2934
▁thread	-2935
ellig	-2936
uth	-2937
▁create	-2938
▁pow	-2939
▁intellig	-2940
▁harsh	-2941
▁rode	-2942
▁roof	-2943
▁vol	-2944
▁delight	-2945
▁load	-2946
hip	-2947
▁compassion	-2948
▁libr	-2949
▁feathers	-2950
▁gifted	-2951
▁practiced	-2952
▁bicy	-2953
▁friendship	-2954
▁fu	-2955
▁shrimp	-2956
ither	-2957
uli	-2958
▁computer	-2959
▁ed	-2960
▁vi	-2961
coli	-2962
▁nur	-2963
▁sailed	-2964
▁persistent	-2965
▁forward	-2966
▁tube	-2967
▁rice	-2968
▁coo	-2969
▁broc	-2970
▁turkey	-2971
aff	-2972
▁ze	-2973
▁glove	-2974
▁kay	-2975
▁envel	-2976
▁pigeon	-2977
▁questions	-2978
▁knot	-2979
▁acce	-2980
▁broccoli	-2981
▁inse	-2982
▁half	-2983
▁desk	-2984
▁judge	-2985
▁charming	-2986
▁stream	-2987
▁raft	-2988
▁onion	-2989
ubby	-2990
▁trunk	-2991
▁ears	-2992
▁envious	-2993
▁dreams	-2994
▁stronger	-2995
▁wheat	-2996
▁volcan	-2997
▁coins	-2998
ime	-2999
▁trap	-3000
▁chubby	-3001
omes	-3002
▁ap	-3003
▁tap	-3004
▁thu	-3005
▁ske	-3006
▁aeroplane	-3007
▁volcano	-3008
▁carpet	-3009
▁crawl	-3010
▁restless	-3011
▁boxes	-3012
▁graceful	-3013
▁intelligent	-3014
bobo	-3015
▁spun	-3016
▁tuna	-3017
▁cauli	-3018
▁deliver	-3019
▁vide	-3020
▁vine	-3021
▁thief	-3022
▁track	-3023
▁sle	-3024
▁learning	-3025
tommy	-3026
▁insect	-3027
▁ticket	-3028
▁sleeping	-3029
▁leop	-3030
▁numbers	-3031
▁eraser	-3032
cycle	-3033
▁planet	-3034
▁louder	-3035
▁haircut	-3036
cture	-3037
▁alert	-3038
ye	-3039
▁ple	-3040
ital	-3041
▁excite	-3042
▁screen	-3043
▁firew	-3044
asses	-3045
▁attract	-3046
▁accident	-3047
▁destro	-3048
▁hosp	-3049
▁peter	-3050
▁peach	-3051
▁oat	-3052
▁cauliflower	-3053
zzy	-3054
ulu	-3055
▁viol	-3056
▁hospital	-3057
isted	-3058
▁returned	-3059
asing	-3060
▁happening	-3061
▁poem	-3062
▁saus	-3063
▁decide	-3064
▁competitive	-3065
▁rod	-3066
▁nicely	-3067
▁soldier	-3068
▁mint	-3069
▁hook	-3070
▁celebrate	-3071
▁dolphin	-3072
▁lying	-3073
▁curt	-3074
acht	-3075
▁yacht	-3076
time	-3077
▁prun	-3078
▁attractive	-3079
▁parade	-3080
▁compassionate	-3081
▁curtain	-3082
▁firework	-3083
▁violin	-3084
▁wheels	-3085
▁ignorant	-3086
▁travel	-3087
▁ways	-3088
▁leopard	-3089
dest	-3090
▁bul	-3091
▁base	-3092
▁barrel	-3093
▁scatter	-3094
▁deter	-3095
▁cel	-3096
▁rag	-3097
▁soar	-3098
▁needle	-3099
anger	-3100
▁envelope	-3101
▁pipp	-3102
▁question	-3103
▁cricket	-3104
▁scooter	-3105
▁determ	-3106
▁bulb	-3107
▁phot	-3108
▁bicycle	-3109
▁order	-3110
▁pony	-3111
▁temp	-3112
▁herb	-3113
book	-3114
▁truth	-3115
▁nurse	-3116
▁homes	-3117
▁ador	-3118
▁celery	-3119
▁chalk	-3120
dom	-3121
▁spell	-3122
▁rubbed	-3123
▁matt	-3124
igator	-3125
▁float	-3126
▁bushes	-3127
▁impat	-3128
▁yet	-3129
▁han	-3130
▁alligator	-3131
▁pengu	-3132
▁cleaning	-3133
▁cushion	-3134
▁grown	-3135
▁seal	-3136
▁adorable	-3137
▁jazz	-3138
▁impatient	-3139
▁cooked	-3140
▁tray	-3141
▁shells	-3142
▁skin	-3143
▁purse	-3144
▁ink	-3145
▁sniff	-3146
▁themselves	-3147
▁radish	-3148
▁walls	-3149
▁lively	-3150
▁saying	-3151
▁counting	-3152
▁meat	-3153
▁spinning	-3154
▁speak	-3155
▁distant	-3156
▁im	-3157
▁motorcycle	-3158
▁send	-3159
▁club	-3160
▁marry	-3161
▁bin	-3162
▁avocado	-3163
▁chain	-3164
▁surf	-3165
▁case	-3166
▁film	-3167
▁forth	-3168
squ	-3169
▁enth	-3170
▁pit	-3171
▁bounced	-3172
▁stum	-3173
▁rubb	-3174
▁slept	-3175
▁wallet	-3176
▁week	-3177
▁steak	-3178
illa	-3179
▁metal	-3180
ron	-3181
▁rot	-3182
▁enthus	-3183
▁oy	-3184
chair	-3185
▁impr	-3186
▁notebook	-3187
▁destroy	-3188
▁patter	-3189
▁post	-3190
▁wiped	-3191
ision	-3192
▁behave	-3193
▁biggest	-3194
▁dive	-3195
▁jellyfish	-3196
▁pole	-3197
▁zebra	-3198
▁ow	-3199
▁father	-3200
vator	-3201
▁diary	-3202
urb	-3203
▁bandage	-3204
▁pattern	-3205
▁shut	-3206
▁laughs	-3207
▁elevator	-3208
▁polly	-3209
▁saf	-3210
▁beep	-3211
▁skull	-3212
bul	-3213
▁skipped	-3214
▁armchair	-3215
give	-3216
ject	-3217
▁gri	-3218
▁mixer	-3219
▁showing	-3220
▁disturb	-3221
▁those	-3222
ourage	-3223
▁bags	-3224
▁lime	-3225
▁enc	-3226
▁screw	-3227
▁gathered	-3228
▁buttons	-3229
az	-3230
▁yoga	-3231
▁bump	-3232
▁lulu	-3233
▁chess	-3234
▁stranger	-3235
▁guard	-3236
▁sweater	-3237
bulance	-3238
▁compl	-3239
▁journal	-3240
▁ambulance	-3241
▁twe	-3242
▁shield	-3243
▁trucks	-3244
▁unlock	-3245
▁loudly	-3246
▁laser	-3247
▁tummy	-3248
▁spir	-3249
▁folder	-3250
▁tweet	-3251
ito	-3252
▁salt	-3253
▁thunder	-3254
▁library	-3255
▁lights	-3256
▁playground	-3257
▁city	-3258
▁pointing	-3259
▁station	-3260
▁birdy	-3261
▁prep	-3262
▁cord	-3263
▁decorate	-3264
▁mosqu	-3265
▁oct	-3266
name	-3267
▁falls	-3268
▁modest	-3269
▁mosquito	-3270
▁orname	-3271
▁pirate	-3272
▁spirit	-3273
▁zipp	-3274
▁hipp	-3275
▁knows	-3276
▁polish	-3277
▁complet	-3278
▁muffin	-3279
timmy	-3280
▁itch	-3281
▁coal	-3282
well	-3283
▁math	-3284
▁resc	-3285
keep	-3286
▁vest	-3287
▁aut	-3288
▁attic	-3289
▁cable	-3290
ob	-3291
▁strawberry	-3292
▁disappeared	-3293
▁scrat	-3294
▁octop	-3295
▁reading	-3296
▁mild	-3297
▁football	-3298
▁brothers	-3299
▁split	-3300
▁pine	-3301
▁driving	-3302
▁support	-3303
▁missile	-3304
▁led	-3305
▁skelet	-3306
uring	-3307
▁kindness	-3308
gl	-3309
▁octopus	-3310
lies	-3311
▁calling	-3312
▁cupboard	-3313
▁gor	-3314
par	-3315
▁root	-3316
▁waffle	-3317
per	-3318
▁patch	-3319
▁flea	-3320
▁flame	-3321
▁wishes	-3322
▁kayak	-3323
▁tripped	-3324
▁complete	-3325
umb	-3326
stic	-3327
uc	-3328
▁golf	-3329
▁poke	-3330
▁determined	-3331
▁added	-3332
▁edge	-3333
▁succeed	-3334
▁sneeze	-3335
▁hunter	-3336
▁autom	-3337
obile	-3338
▁stack	-3339
▁automobile	-3340
scope	-3341
nda	-3342
▁tina	-3343
▁skeleton	-3344
▁suggest	-3345
utes	-3346
▁complain	-3347
▁switch	-3348
▁hippo	-3349
iastic	-3350
▁enthusiastic	-3351
▁cartoon	-3352
▁growl	-3353
▁lau	-3354
▁meadow	-3355
inky	-3356
▁batht	-3357
▁oyster	-3358
▁hall	-3359
▁drawer	-3360
▁bathtub	-3361
▁veil	-3362
ophone	-3363
▁means	-3364
?".	-3365
▁repe	-3366
work	-3367
▁pun	-3368
aged	-3369
▁troph	-3370
▁gear	-3371
▁video	-3372
▁ot	-3373
▁glowing	-3374
▁spear	-3375
body	-3376
▁cups	-3377
▁repair	-3378
▁itself	-3379
essert	-3380
▁drawings	-3381
▁pete	-3382
▁teleph	-3383
glasses	-3384
▁sunglasses	-3385
▁makeup	-3386
▁dessert	-3387
▁handle	-3388
▁costume	-3389
▁rolling	-3390
▁pastry	-3391
▁arg	-3392
▁minutes	-3393
▁maze	-3394
case	-3395
▁telephone	-3396
▁hedge	-3397
▁packed	-3398
▁mattress	-3399
▁knight	-3400
mum	-3401
▁bess	-3402
▁powder	-3403
▁package	-3404
▁micr	-3405
▁shocked	-3406
▁trophy	-3407
ines	-3408
▁camp	-3409
▁cob	-3410
▁frame	-3411
▁snap	-3412
there	-3413
▁managed	-3414
▁basketball	-3415
▁wife	-3416
▁separ	-3417
play	-3418
bu	-3419
▁grapes	-3420
web	-3421
▁stairs	-3422
▁file	-3423
▁magaz	-3424
▁eye	-3425
▁strugg	-3426
▁microphone	-3427
▁cobweb	-3428
▁colour	-3429
head	-3430
▁wool	-3431
▁hen	-3432
▁micro	-3433
▁gorilla	-3434
see	-3435
▁iron	-3436
cu	-3437
▁perm	-3438
olly	-3439
esday	-3440
▁leash	-3441
▁gasp	-3442
iew	-3443
▁weep	-3444
aving	-3445
▁bananas	-3446
▁ribb	-3447
▁barking	-3448
▁safely	-3449
jane	-3450
was	-3451
ature	-3452
▁staff	-3453
▁tear	-3454
▁hoc	-3455
▁view	-3456
▁sil	-3457
▁slides	-3458
▁hockey	-3459
▁vend	-3460
▁five	-3461
▁steps	-3462
istol	-3463
ffee	-3464
▁zig	-3465
▁pistol	-3466
▁cooler	-3467
▁task	-3468
▁giggled	-3469
▁cooking	-3470
▁early	-3471
▁flour	-3472
▁fireman	-3473
▁ten	-3474
▁otter	-3475
▁sailor	-3476
▁anch	-3477
▁sausage	-3478
▁chur	-3479
▁marched	-3480
▁pee	-3481
▁cell	-3482
▁rever	-3483
▁church	-3484
▁hotel	-3485
▁thinking	-3486
▁often	-3487
▁oil	-3488
washer	-3489
▁remain	-3490
hic	-3491
▁photo	-3492
▁vehic	-3493
gra	-3494
ilot	-3495
▁mitten	-3496
▁dishwasher	-3497
▁pretending	-3498
▁either	-3499
▁microscope	-3500
▁medal	-3501
▁sof	-3502
▁whip	-3503
▁baseball	-3504
▁coffee	-3505
▁vendor	-3506
▁tools	-3507
sport	-3508
▁oak	-3509
apped	-3510
▁hours	-3511
▁rhin	-3512
▁organize	-3513
▁temple	-3514
▁anchor	-3515
▁betty	-3516
▁battery	-3517
happy	-3518
▁sight	-3519
▁chose	-3520
▁buck	-3521
▁cudd	-3522
▁grill	-3523
▁opens	-3524
▁raz	-3525
▁realised	-3526
▁sandbox	-3527
▁passport	-3528
▁rise	-3529
▁hurry	-3530
▁factor	-3531
▁susie	-3532
▁lotion	-3533
▁short	-3534
▁trash	-3535
▁pilot	-3536
▁skirt	-3537
▁factory	-3538
wa	-3539
▁ur	-3540
▁kang	-3541
ney	-3542
▁ward	-3543
▁zipper	-3544
▁tornado	-3545
▁hanger	-3546
▁wardrobe	-3547
seum	-3548
▁cardboard	-3549
▁silver	-3550
▁hanging	-3551
▁quit	-3552
▁mem	-3553
▁valu	-3554
▁museum	-3555
▁penguin	-3556
ugged	-3557
▁napkin	-3558
▁message	-3559
▁cane	-3560
▁avail	-3561
▁allowed	-3562
▁hive	-3563
▁excitement	-3564
▁towers	-3565
loo	-3566
▁blackboard	-3567
▁picking	-3568
▁reward	-3569
keeper	-3570
ucet	-3571
▁faucet	-3572
place	-3573
▁check	-3574
te	-3575
▁pippin	-3576
▁novel	-3577
▁igloo	-3578
▁freez	-3579
▁bessie	-3580
▁stumbled	-3581
▁dreamed	-3582
▁razor	-3583
aky	-3584
▁juicy	-3585
▁available	-3586
aroo	-3587
ith	-3588
ric	-3589
ination	-3590
▁fisher	-3591
▁already	-3592
▁holds	-3593
▁bathe	-3594
▁chim	-3595
spap	-3596
▁fingers	-3597
▁imagine	-3598
▁newspap	-3599
▁kangaroo	-3600
ndry	-3601
▁size	-3602
htray	-3603
▁pal	-3604
inde	-3605
▁chimney	-3606
▁lend	-3607
▁ashtray	-3608
▁laundry	-3609
▁men	-3610
arm	-3611
▁practice	-3612
▁telling	-3613
▁toby	-3614
ately	-3615
▁reinde	-3616
wait	-3617
fluffy	-3618
▁mule	-3619
▁cherries	-3620
▁sub	-3621
▁enjoying	-3622
▁notice	-3623
▁spilled	-3624
▁gain	-3625
▁shrink	-3626
▁ornament	-3627
▁display	-3628
gen	-3629
ampoo	-3630
▁fireplace	-3631
lend	-3632
▁rece	-3633
▁fastest	-3634
ocer	-3635
▁cows	-3636
▁magazine	-3637
▁super	-3638
▁cabinet	-3639
▁rhinocer	-3640
▁pinch	-3641
▁rake	-3642
▁shampoo	-3643
▁reindeer	-3644
▁palace	-3645
lu	-3646
▁climbing	-3647
▁improve	-3648
arian	-3649
▁falling	-3650
▁miner	-3651
ache	-3652
▁alice	-3653
ilet	-3654
▁oats	-3655
ured	-3656
form	-3657
▁discovered	-3658
▁roared	-3659
▁rhinoceros	-3660
▁stared	-3661
▁trail	-3662
▁tub	-3663
▁fisherman	-3664
▁toilet	-3665
▁fog	-3666
▁ax	-3667
aches	-3668
▁hut	-3669
▁boots	-3670
iction	-3671
stairs	-3672
▁por	-3673
▁happier	-3674
▁taller	-3675
▁object	-3676
▁listening	-3677
▁fuel	-3678
ictionary	-3679
vision	-3680
▁valuable	-3681
▁holes	-3682
aid	-3683
▁offered	-3684
▁kim	-3685
umber	-3686
▁opera	-3687
▁names	-3688
▁blin	-3689
▁jokes	-3690
mama	-3691
vice	-3692
rant	-3693
▁stretched	-3694
▁bury	-3695
▁dictionary	-3696
iest	-3697
▁spoke	-3698
▁jewelry	-3699
▁television	-3700
▁perfume	-3701
▁sparkly	-3702
▁bathrobe	-3703
▁parent	-3704
▁lightning	-3705
▁calend	-3706
▁axe	-3707
▁prov	-3708
▁son	-3709
▁stops	-3710
▁jumps	-3711
▁nature	-3712
▁beef	-3713
bol	-3714
old	-3715
▁pressed	-3716
▁alarm	-3717
▁sym	-3718
▁symbol	-3719
▁x	-3720
sses	-3721
▁resist	-3722
▁attach	-3723
▁neat	-3724
▁calendar	-3725
reek	-3726
▁ped	-3727
▁fort	-3728
▁creek	-3729
▁popped	-3730
▁unpack	-3731
▁helper	-3732
▁papers	-3733
▁gasped	-3734
▁subway	-3735
▁freezer	-3736
del	-3737
▁letters	-3738
▁mustache	-3739
▁lie	-3740
▁comfort	-3741
▁bikes	-3742
zag	-3743
▁anyway	-3744
▁porch	-3745
affe	-3746
▁shaking	-3747
▁butterflies	-3748
▁tightly	-3749
iches	-3750
▁swinging	-3751
▁bookcase	-3752
▁sandwiches	-3753
▁tut	-3754
▁weigh	-3755
▁dare	-3756
▁squirrels	-3757
▁mrs	-3758
▁against	-3759
▁stickers	-3760
▁newspaper	-3761
▁restau	-3762
▁buckle	-3763
▁sadly	-3764
▁blouse	-3765
▁disag	-3766
▁giraffe	-3767
▁vehicle	-3768
▁swamp	-3769
▁belongs	-3770
ival	-3771
▁growing	-3772
▁inclu	-3773
▁gym	-3774
▁restaurant	-3775
ella	-3776
▁fest	-3777
▁billboard	-3778
▁rubber	-3779
cen	-3780
▁lip	-3781
▁stirred	-3782
ki	-3783
▁gas	-3784
▁sweetie	-3785
ef	-3786
▁cards	-3787
▁hung	-3788
▁obser	-3789
▁distance	-3790
ogn	-3791
ging	-3792
fast	-3793
▁tease	-3794
▁pup	-3795
▁tutor	-3796
▁agree	-3797
▁ext	-3798
▁hate	-3799
▁recogn	-3800
▁doesn	-3801
stri	-3802
▁musician	-3803
▁model	-3804
▁serve	-3805
▁advice	-3806
▁blueberries	-3807
▁shel	-3808
aspoon	-3809
▁winter	-3810
▁festival	-3811
▁circles	-3812
▁teaspoon	-3813
▁squeeze	-3814
▁crib	-3815
▁apr	-3816
▁breakfast	-3817
▁sofa	-3818
port	-3819
▁reverse	-3820
▁frogs	-3821
▁bookshe	-3822
▁riding	-3823
▁shelter	-3824
▁separate	-3825
asis	-3826
▁airport	-3827
▁junk	-3828
▁lumber	-3829
jim	-3830
▁oasis	-3831
▁dolly	-3832
▁wipe	-3833
▁bookshelf	-3834
▁ahead	-3835
▁drain	-3836
▁pleased	-3837
▁zigzag	-3838
▁summer	-3839
▁rescue	-3840
▁ostri	-3841
▁painter	-3842
▁soil	-3843
sarah	-3844
molly	-3845
▁knob	-3846
▁panda	-3847
▁leaving	-3848
▁page	-3849
▁quiz	-3850
▁pastel	-3851
▁therm	-3852
▁poked	-3853
▁chance	-3854
▁trains	-3855
▁peeked	-3856
▁dancer	-3857
mr	-3858
▁knock	-3859
▁rail	-3860
▁slipp	-3861
▁extra	-3862
grand	-3863
▁refused	-3864
nce	-3865
▁thermomet	-3866
▁rules	-3867
▁peek	-3868
▁happens	-3869
▁waste	-3870
▁sounded	-3871
▁birdc	-3872
▁ins	-3873
▁disappear	-3874
▁cliff	-3875
▁reef	-3876
▁thermometer	-3877
▁weather	-3878
▁birdcage	-3879
▁copper	-3880
▁theater	-3881
▁licen	-3882
▁trade	-3883
▁carrying	-3884
▁invite	-3885
▁goal	-3886
▁mittens	-3887
▁swung	-3888
▁uniform	-3889
▁accept	-3890
ience	-3891
▁pandy	-3892
▁lawn	-3893
▁leaned	-3894
angu	-3895
billy	-3896
▁admire	-3897
▁langu	-3898
▁accidentally	-3899
▁stom	-3900
night	-3901
▁twir	-3902
▁suff	-3903
friger	-3904
frigerator	-3905
▁refrigerator	-3906
render	-3907
▁blinked	-3908
▁dreaming	-3909
▁starts	-3910
aced	-3911
▁anywhere	-3912
▁remove	-3913
▁lee	-3914
▁imagined	-3915
▁berry	-3916
▁shower	-3917
▁ceiling	-3918
▁caring	-3919
!".	-3920
▁classroom	-3921
▁ga	-3922
ium	-3923
▁lawy	-3924
▁ostrich	-3925
▁above	-3926
▁license	-3927
▁monkeys	-3928
▁repeat	-3929
amber	-3930
▁brick	-3931
▁missing	-3932
▁stable	-3933
▁warned	-3934
aked	-3935
ected	-3936
▁wine	-3937
astic	-3938
da	-3939
▁problems	-3940
▁label	-3941
▁chasing	-3942
▁lid	-3943
▁wed	-3944
▁apron	-3945
▁excitedly	-3946
iture	-3947
▁sent	-3948
urniture	-3949
▁thanks	-3950
uggage	-3951
▁furniture	-3952
▁luggage	-3953
▁ellie	-3954
▁respectful	-3955
▁zoomed	-3956
▁grape	-3957
▁frowned	-3958
▁prevent	-3959
▁mike	-3960
▁bent	-3961
ations	-3962
▁pages	-3963
▁mistakes	-3964
▁sunset	-3965
▁lions	-3966
▁jail	-3967
▁snugg	-3968
ison	-3969
▁suggested	-3970
▁windows	-3971
▁lawyer	-3972
▁older	-3973
▁wisdom	-3974
▁ribbon	-3975
▁bouncy	-3976
▁shouts	-3977
▁stru	-3978
▁ge	-3979
ded	-3980
▁spoil	-3981
▁structure	-3982
▁cur	-3983
▁fixing	-3984
hy	-3985
▁chamber	-3986
▁delay	-3987
▁unite	-3988
did	-3989
▁finds	-3990
▁searching	-3991
▁handed	-3992
▁art	-3993
▁fought	-3994
▁brightly	-3995
▁meeting	-3996
▁pair	-3997
▁choice	-3998
▁surprises	-3999
▁slip	-4000
▁favour	-4001
eterin	-4002
adium	-4003
eterinarian	-4004
▁stadium	-4005
▁puddles	-4006
▁proudly	-4007
▁veterinarian	-4008
vet	-4009
▁chairs	-4010
rod	-4011
▁incre	-4012
▁ranch	-4013
▁fre	-4014
▁introd	-4015
your	-4016
▁reve	-4017
▁argue	-4018
▁yield	-4019
orge	-4020
▁admired	-4021
▁favourite	-4022
▁human	-4023
▁dave	-4024
▁steam	-4025
▁mall	-4026
▁matches	-4027
▁grabs	-4028
mend	-4029
▁weap	-4030
▁pushing	-4031
▁surrender	-4032
▁reveal	-4033
▁regret	-4034
▁saving	-4035
sity	-4036
bor	-4037
▁navy	-4038
▁appl	-4039
▁recom	-4040
▁reminded	-4041
▁recommend	-4042
alley	-4043
▁apol	-4044
▁leak	-4045
▁valley	-4046
▁mineral	-4047
▁putting	-4048
cuss	-4049
▁vel	-4050
▁inf	-4051
▁evening	-4052
▁claw	-4053
▁forgave	-4054
▁socks	-4055
▁sneezed	-4056
▁velvet	-4057
▁ignore	-4058
▁apolog	-4059
▁spade	-4060
▁rushed	-4061
▁harbor	-4062
▁plates	-4063
▁discuss	-4064
▁language	-4065
▁buzzy	-4066
▁tip	-4067
▁prepare	-4068
▁supply	-4069
edy	-4070
▁country	-4071
▁plastic	-4072
▁meas	-4073
▁pulls	-4074
▁strip	-4075
▁mystery	-4076
▁mandy	-4077
▁replace	-4078
▁sniffed	-4079
▁raise	-4080
▁johnny	-4081
▁shovel	-4082
▁carl	-4083
▁cared	-4084
▁restore	-4085
▁doors	-4086
▁lives	-4087
▁university	-4088
▁sticker	-4089
▁player	-4090
▁sudden	-4091
▁panic	-4092
▁slippery	-4093
hero	-4094
▁hoping	-4095
▁kinds	-4096
..	-4097
ricane	-4098
iday	-4099
▁shone	-4100
ero	-4101
▁delighted	-4102
▁gro	-4103
▁infant	-4104
▁binky	-4105
▁superhero	-4106
▁beg	-4107
▁lu	-4108
▁hurricane	-4109
▁chickens	-4110
▁freddy	-4111
▁port	-4112
▁cherry	-4113
boo	-4114
▁shoulder	-4115
ah	-4116
▁breat	-4117
▁colourful	-4118
▁rained	-4119
rise	-4120
yay	-4121
▁wigg	-4122
▁speedy	-4123
▁stitch	-4124
▁softly	-4125
▁hol	-4126
▁freeze	-4127
▁holiday	-4128
yuck	-4129
▁planes	-4130
▁throwing	-4131
▁barks	-4132
▁kneel	-4133
▁fresh	-4134
▁shakes	-4135
icer	-4136
▁sunrise	-4137
xy	-4138
▁keeping	-4139
▁shivering	-4140
▁ended	-4141
▁pushes	-4142
▁soph	-4143
▁trem	-4144
▁thumb	-4145
▁suffer	-4146
▁giggle	-4147
wards	-4148
▁points	-4149
cond	-4150
▁enter	-4151
▁blink	-4152
imed	-4153
▁dear	-4154
▁second	-4155
ages	-4156
▁mass	-4157
▁applau	-4158
▁smells	-4159
anic	-4160
▁ki	-4161
▁weapon	-4162
▁provide	-4163
cast	-4164
chanic	-4165
▁mechanic	-4166
▁dishes	-4167
▁wre	-4168
▁grant	-4169
▁universe	-4170
▁heads	-4171
▁menu	-4172
mand	-4173
▁meowed	-4174
▁brighter	-4175
▁clapping	-4176
ason	-4177
▁sandcast	-4178
▁chick	-4179
▁laught	-4180
▁letting	-4181
▁sprayed	-4182
▁laughter	-4183
▁bree	-4184
daisy	-4185
▁score	-4186
▁feelings	-4187
▁splashing	-4188
▁luck	-4189
▁nobody	-4190
▁yawn	-4191
▁prune	-4192
▁row	-4193
▁sticky	-4194
ement	-4195
▁castles	-4196
▁bend	-4197
jen	-4198
▁flies	-4199
lie	-4200
▁rooms	-4201
▁zero	-4202
▁vroom	-4203
▁aw	-4204
igi	-4205
year	-4206
▁unhappy	-4207
▁lola	-4208
▁greedy	-4209
▁somewhere	-4210
▁alive	-4211
▁ted	-4212
▁courage	-4213
▁breaks	-4214
▁ener	-4215
▁rush	-4216
▁invit	-4217
▁demand	-4218
▁ment	-4219
jill	-4220
▁boo	-4221
joe	-4222
▁poison	-4223
▁wreck	-4224
▁trusted	-4225
ext	-4226
next	-4227
▁lilly	-4228
▁settle	-4229
▁examine	-4230
▁parts	-4231
▁mention	-4232
▁skill	-4233
▁pirates	-4234
▁eaten	-4235
▁kiki	-4236
▁steel	-4237
erc	-4238
▁raining	-4239
mummy	-4240
▁snowy	-4241
quest	-4242
▁throws	-4243
▁jogged	-4244
▁starting	-4245
▁vac	-4246
will	-4247
heart	-4248
▁content	-4249
ating	-4250
bl	-4251
▁bye	-4252
▁sport	-4253
▁drops	-4254
▁sigh	-4255
ari	-4256
▁exerc	-4257
▁flapped	-4258
▁toe	-4259
▁zoomy	-4260
▁streng	-4261
▁sparkled	-4262
grandma	-4263
▁given	-4264
▁george	-4265
▁request	-4266
▁bumped	-4267
▁yawned	-4268
▁bouncing	-4269
buddy	-4270
▁scold	-4271
▁strength	-4272
▁myself	-4273
▁scratch	-4274
▁punish	-4275
▁pigs	-4276
▁equ	-4277
▁coats	-4278
▁shrugged	-4279
ince	-4280
▁hist	-4281
▁sir	-4282
▁claws	-4283
▁upstairs	-4284
▁paid	-4285
▁bears	-4286
▁history	-4287
▁rhy	-4288
▁tracks	-4289
▁nation	-4290
▁tide	-4291
▁prayed	-4292
▁flood	-4293
▁impressed	-4294
▁crossed	-4295
▁rabbits	-4296
▁squeezed	-4297
▁leather	-4298
▁expect	-4299
▁warn	-4300
▁brain	-4301
little	-4302
▁news	-4303
▁sweetheart	-4304
▁badly	-4305
▁minute	-4306
▁network	-4307
▁snowball	-4308
▁heat	-4309
▁vacation	-4310
▁hoppy	-4311
▁strawberries	-4312
▁observe	-4313
thm	-4314
▁explored	-4315
▁rhythm	-4316
welcome	-4317
▁horses	-4318
▁sandcastle	-4319
mare	-4320
▁tour	-4321
▁hi	-4322
▁paul	-4323
ially	-4324
▁capt	-4325
▁es	-4326
▁blueberry	-4327
▁believed	-4328
▁writing	-4329
▁checked	-4330
▁cheek	-4331
▁offer	-4332
lex	-4333
▁spots	-4334
▁easily	-4335
▁placed	-4336
▁baking	-4337
▁danny	-4338
▁prunes	-4339
ween	-4340
▁imagination	-4341
▁gigi	-4342
▁nightmare	-4343
▁energy	-4344
▁between	-4345
▁massage	-4346
▁safari	-4347
pecially	-4348
▁palm	-4349
bec	-4350
▁waving	-4351
izes	-4352
▁especially	-4353
inking	-4354
▁soak	-4355
▁joey	-4356
▁alex	-4357
▁stomach	-4358
▁stair	-4359
▁scoop	-4360
quake	-4361
▁beauty	-4362
ding	-4363
▁pad	-4364
▁insisted	-4365
▁blowing	-4366
▁oxy	-4367
▁entered	-4368
▁sty	-4369
ients	-4370
oved	-4371
▁ye	-4372
▁twisted	-4373
▁bones	-4374
iggly	-4375
▁bother	-4376
▁earthquake	-4377
▁tug	-4378
ipment	-4379
▁hills	-4380
▁afterno	-4381
▁equipment	-4382
▁mailman	-4383
▁ing	-4384
▁calls	-4385
▁ingred	-4386
reat	-4387
▁ignored	-4388
▁sew	-4389
▁burned	-4390
▁hearts	-4391
▁squeaky	-4392
▁afternoon	-4393
▁lemonade	-4394
▁crash	-4395
▁lear	-4396
▁learnt	-4397
▁increase	-4398
▁lemons	-4399
▁sim	-4400
▁tremble	-4401
▁pedal	-4402
▁sandy	-4403
men	-4404
mark	-4405
▁whistled	-4406
▁backpack	-4407
▁shopkeeper	-4408
▁permit	-4409
▁beans	-4410
▁yucky	-4411
anges	-4412
▁moves	-4413
▁sophie	-4414
▁introduce	-4415
▁heel	-4416
ann	-4417
▁oh	-4418
▁floated	-4419
isty	-4420
nesday	-4421
▁racing	-4422
nday	-4423
▁strike	-4424
▁pitch	-4425
▁traffic	-4426
▁price	-4427
▁planned	-4428
▁slap	-4429
▁include	-4430
▁wags	-4431
▁twisty	-4432
▁following	-4433
resses	-4434
▁finny	-4435
laimed	-4436
▁below	-4437
jimmy	-4438
eration	-4439
ecting	-4440
woof	-4441
▁twink	-4442
▁elly	-4443
▁weight	-4444
house	-4445
▁comf	-4446
▁candles	-4447
▁exclaimed	-4448
▁charlie	-4449
▁buried	-4450
▁follows	-4451
▁recognize	-4452
▁ingredients	-4453
▁marbles	-4454
▁finn	-4455
▁wednesday	-4456
riage	-4457
▁seeing	-4458
gie	-4459
▁oxygen	-4460
▁apart	-4461
▁growled	-4462
▁teaching	-4463
emma	-4464
▁folded	-4465
▁encourage	-4466
▁hopes	-4467
▁closely	-4468
▁sunday	-4469
▁chore	-4470
urther	-4471
sur	-4472
▁winning	-4473
▁digg	-4474
▁pulling	-4475
▁further	-4476
▁digging	-4477
rec	-4478
▁urge	-4479
lisa	-4480
▁chewed	-4481
▁tilly	-4482
▁henry	-4483
▁froggy	-4484
▁snail	-4485
▁papa	-4486
▁annie	-4487
▁captain	-4488
▁peanuts	-4489
▁isn	-4490
▁worms	-4491
before	-4492
▁puzzles	-4493
▁dresses	-4494
▁glo	-4495
▁image	-4496
▁shouting	-4497
▁whisper	-4498
▁flap	-4499
cery	-4500
▁grocery	-4501
▁attent	-4502
daddy	-4503
▁dot	-4504
▁exercise	-4505
▁hon	-4506
▁acorns	-4507
mimi	-4508
▁blood	-4509
fi	-4510
▁chores	-4511
▁cape	-4512
▁wiggly	-4513
▁cub	-4514
hood	-4515
▁deeper	-4516
▁washing	-4517
unch	-4518
▁operation	-4519
▁attention	-4520
▁planted	-4521
▁exper	-4522
▁sile	-4523
▁underground	-4524
▁lecture	-4525
▁quite	-4526
▁agre	-4527
▁marriage	-4528
▁sprink	-4529
▁creatures	-4530
▁struggle	-4531
▁welcom	-4532
▁since	-4533
▁during	-4534
▁gifts	-4535
▁hurting	-4536
▁pau	-4537
▁dressed	-4538
▁vanished	-4539
▁elephants	-4540
▁invitation	-4541
▁solved	-4542
▁snuggled	-4543
▁licks	-4544
▁harry	-4545
uct	-4546
▁warning	-4547
▁quietly	-4548
▁breathe	-4549
right	-4550
remy	-4551
▁mice	-4552
reci	-4553
because	-4554
▁appreci	-4555
▁landscape	-4556
▁sizes	-4557
▁dried	-4558
▁fallen	-4559
▁quack	-4560
▁eagerly	-4561
▁style	-4562
▁neighbour	-4563
looking	-4564
essed	-4565
gging	-4566
▁lung	-4567
▁sailing	-4568
▁fireworks	-4569
▁paused	-4570
▁zara	-4571
▁counter	-4572
▁release	-4573
▁balan	-4574
▁wink	-4575
▁worth	-4576
▁maria	-4577
ories	-4578
▁god	-4579
ips	-4580
▁shined	-4581
▁reaches	-4582
▁bang	-4583
▁tuesday	-4584
▁bricks	-4585
▁kisses	-4586
▁plays	-4587
▁ideas	-4588
these	-4589
▁muddy	-4590
▁memory	-4591
▁pinky	-4592
pted	-4593
▁bur	-4594
▁accepted	-4595
mary	-4596
▁tomatoes	-4597
▁fashion	-4598
▁exit	-4599
▁ble	-4600
▁married	-4601
che	-4602
▁wagging	-4603
▁wandered	-4604
unately	-4605
▁gloves	-4606
▁receive	-4607
▁pillows	-4608
▁web	-4609
▁resp	-4610
▁petals	-4611
▁si	-4612
sing	-4613
etch	-4614
▁watered	-4615
▁printer	-4616
▁manage	-4617
▁vanish	-4618
ouraged	-4619
▁brings	-4620
▁pinched	-4621
▁cakes	-4622
▁fifi	-4623
▁bluey	-4624
▁allow	-4625
meow	-4626
▁worse	-4627
▁destroyed	-4628
▁treasures	-4629
ups	-4630
▁hadn	-4631
ipping	-4632
▁disagree	-4633
▁catching	-4634
▁hits	-4635
▁appear	-4636
xu	-4637
andy	-4638
▁oranges	-4639
▁memories	-4640
▁scattered	-4641
yum	-4642
▁pears	-4643
▁sorts	-4644
▁signs	-4645
▁hers	-4646
▁scolded	-4647
▁sliding	-4648
surpr	-4649
▁rang	-4650
▁snapped	-4651
xture	-4652
▁sits	-4653
▁seats	-4654
▁gazed	-4655
▁raised	-4656
▁tony	-4657
▁fro	-4658
▁luxu	-4659
▁prints	-4660
▁zipped	-4661
▁shot	-4662
▁pies	-4663
▁crow	-4664
▁easier	-4665
ssible	-4666
omed	-4667
▁skills	-4668
▁climbs	-4669
▁kate	-4670
▁soc	-4671
▁cutting	-4672
▁twirled	-4673
▁golden	-4674
▁blankets	-4675
▁forgotten	-4676
▁baked	-4677
sterday	-4678
sit	-4679
▁difference	-4680
▁season	-4681
ising	-4682
orted	-4683
▁soccer	-4684
▁sorting	-4685
bella	-4686
goodbye	-4687
▁nowhere	-4688
▁jogging	-4689
▁jess	-4690
▁dared	-4691
▁bites	-4692
▁imm	-4693
with	-4694
▁celebrated	-4695
▁straight	-4696
sters	-4697
▁millie	-4698
surprise	-4699
▁unlocked	-4700
▁ruby	-4701
▁bleed	-4702
▁everyday	-4703
▁collected	-4704
▁welcomed	-4705
▁vict	-4706
▁emer	-4707
▁ours	-4708
▁spoons	-4709
▁visited	-4710
dog	-4711
nies	-4712
ys	-4713
▁luxury	-4714
▁sparkle	-4715
edi	-4716
chie	-4717
▁meow	-4718
ediately	-4719
▁winner	-4720
▁tong	-4721
▁rosie	-4722
▁trave	-4723
fortunately	-4724
▁marching	-4725
▁ruin	-4726
▁prett	-4727
cat	-4728
▁west	-4729
▁attached	-4730
ived	-4731
▁weeping	-4732
▁frost	-4733
▁immediately	-4734
▁simple	-4735
▁kingdom	-4736
▁shouldn	-4737
▁pets	-4738
fred	-4739
▁yesterday	-4740
▁guessed	-4741
▁olives	-4742
▁waist	-4743
▁stuffed	-4744
▁created	-4745
ction	-4746
▁selling	-4747
▁famil	-4748
▁floating	-4749
▁smith	-4750
▁urged	-4751
▁woof	-4752
▁bowed	-4753
▁kicking	-4754
▁james	-4755
▁ref	-4756
▁toes	-4757
▁punished	-4758
▁jewels	-4759
▁muscles	-4760
▁grin	-4761
▁melted	-4762
▁however	-4763
▁none	-4764
▁waffles	-4765
▁understanding	-4766
bug	-4767
▁slice	-4768
▁tore	-4769
▁pearl	-4770
▁collection	-4771
▁measured	-4772
▁beds	-4773
▁trapped	-4774
▁encouraged	-4775
omeday	-4776
▁lined	-4777
▁wally	-4778
iers	-4779
▁peaches	-4780
▁acted	-4781
▁received	-4782
hest	-4783
▁stud	-4784
▁pupil	-4785
▁brus	-4786
▁patterns	-4787
▁someday	-4788
kins	-4789
eath	-4790
▁breeze	-4791
▁mouths	-4792
▁soldiers	-4793
▁victory	-4794
▁potatoes	-4795
▁printed	-4796
mer	-4797
▁result	-4798
umes	-4799
▁drinks	-4800
▁whistling	-4801
bird	-4802
▁experience	-4803
▁shed	-4804
▁drinking	-4805
▁presents	-4806
▁surround	-4807
ker	-4808
▁rocky	-4809
▁skipping	-4810
▁teasing	-4811
▁cau	-4812
▁breaking	-4813
▁voices	-4814
cus	-4815
▁tonight	-4816
▁relaxed	-4817
▁paints	-4818
▁fetch	-4819
▁hurried	-4820
▁jul	-4821
ission	-4822
▁tongue	-4823
▁costumes	-4824
▁flat	-4825
ishing	-4826
▁mentioned	-4827
▁begged	-4828
▁zo	-4829
▁sip	-4830
▁disagreed	-4831
▁permission	-4832
▁fishing	-4833
▁clara	-4834
▁applaud	-4835
today	-4836
vest	-4837
▁contest	-4838
▁opin	-4839
▁appro	-4840
▁lets	-4841
▁highest	-4842
▁east	-4843
▁stealing	-4844
▁shadows	-4845
▁pra	-4846
▁ray	-4847
▁spit	-4848
▁ringing	-4849
▁sorted	-4850
▁watches	-4851
▁herbs	-4852
▁six	-4853
▁escap	-4854
osed	-4855
▁perfectly	-4856
everyone	-4857
▁warmth	-4858
walk	-4859
blue	-4860
▁sett	-4861
▁remained	-4862
▁officer	-4863
bbled	-4864
▁suzy	-4865
▁sneak	-4866
irring	-4867
▁lips	-4868
▁kneeled	-4869
oral	-4870
▁mister	-4871
▁cartoons	-4872
▁stamps	-4873
jenny	-4874
▁colours	-4875
▁ali	-4876
▁mixing	-4877
▁sidewalk	-4878
▁toto	-4879
▁crunch	-4880
▁ago	-4881
▁fed	-4882
▁roots	-4883
▁headed	-4884
",	-4885
bey	-4886
▁kat	-4887
▁emergen	-4888
▁lick	-4889
▁supposed	-4890
▁tale	-4891
▁shock	-4892
utter	-4893
▁decorations	-4894
▁melting	-4895
▁known	-4896
▁wiggle	-4897
med	-4898
▁brid	-4899
▁lines	-4900
▁weig	-4901
ety	-4902
▁works	-4903
▁rested	-4904
▁inch	-4905
▁moments	-4906
▁instr	-4907
leo	-4908
alice	-4909
▁laid	-4910
▁succeeded	-4911
▁cones	-4912
▁girls	-4913
▁setting	-4914
angers	-4915
▁stole	-4916
▁twigs	-4917
really	-4918
▁strangers	-4919
▁studied	-4920
▁stirring	-4921
▁alright	-4922
atch	-4923
▁theirs	-4924
!'	-4925
!",	-4926
▁lands	-4927
▁screams	-4928
.'	-4929
▁bravely	-4930
▁ordered	-4931
▁firef	-4932
▁fields	-4933
▁rul	-4934
▁resting	-4935
▁threat	-4936
▁invest	-4937
▁playtime	-4938
▁burning	-4939
▁scratched	-4940
▁ripped	-4941
▁tucked	-4942
▁investig	-4943
▁ladybug	-4944
▁chicky	-4945
▁bridges	-4946
bies	-4947
▁turning	-4948
ishes	-4949
▁settled	-4950
▁achie	-4951
▁matched	-4952
▁texture	-4953
▁nails	-4954
ship	-4955
acked	-4956
once	-4957
▁waits	-4958
mbling	-4959
▁silence	-4960
▁trembling	-4961
▁muffins	-4962
▁appreciate	-4963
▁broom	-4964
would	-4965
ored	-4966
▁wiz	-4967
▁emergency	-4968
▁safety	-4969
▁piles	-4970
▁escaped	-4971
▁investigate	-4972
▁babies	-4973
▁chewing	-4974
▁pupp	-4975
▁admir	-4976
osity	-4977
▁sore	-4978
▁maggie	-4979
▁area	-4980
▁sisters	-4981
▁dads	-4982
▁answers	-4983
▁keys	-4984
▁boom	-4985
▁slapped	-4986
▁served	-4987
▁importance	-4988
zing	-4989
izing	-4990
ides	-4991
▁touching	-4992
▁dino	-4993
unny	-4994
▁beat	-4995
allen	-4996
▁soared	-4997
igail	-4998
▁sings	-4999
chel	-5000
antly	-5001
▁twin	-5002
▁dinosaurs	-5003
▁challen	-5004
▁hesit	-5005
▁keeps	-5006
▁amazement	-5007
▁moo	-5008
▁revealed	-5009
any	-5010
▁wizard	-5011
▁item	-5012
▁writ	-5013
▁soaked	-5014
▁rides	-5015
▁foods	-5016
▁loose	-5017
▁vet	-5018
▁dire	-5019
mother	-5020
▁tickle	-5021
▁napping	-5022
▁studying	-5023
▁recorded	-5024
momo	-5025
▁sprinkles	-5026
▁trips	-5027
▁glowed	-5028
▁beamed	-5029
▁curled	-5030
▁hated	-5031
▁shopping	-5032
▁eats	-5033
▁flutter	-5034
▁crawling	-5035
▁thri	-5036
▁praised	-5037
▁bringing	-5038
▁wooden	-5039
▁len	-5040
▁shooting	-5041
▁ruler	-5042
▁brushes	-5043
▁gust	-5044
▁spaceship	-5045
▁monsters	-5046
▁downstairs	-5047
▁flav	-5048
▁dar	-5049
▁robb	-5050
▁youth	-5051
▁measuring	-5052
▁cuddled	-5053
▁marks	-5054
▁tastes	-5055
mmm	-5056
▁collecting	-5057
▁fut	-5058
vid	-5059
▁future	-5060
▁grey	-5061
▁families	-5062
▁approached	-5063
▁leader	-5064
'.	-5065
▁sneaky	-5066
▁crunchy	-5067
po	-5068
▁bleeding	-5069
▁noon	-5070
▁naps	-5071
▁nicer	-5072
▁remembers	-5073
▁motion	-5074
▁disturbed	-5075
▁firemen	-5076
▁scaring	-5077
moral	-5078
▁peel	-5079
▁neighborhood	-5080
have	-5081
▁rust	-5082
rem	-5083
▁lou	-5084
▁possible	-5085
▁lizzy	-5086
▁apologized	-5087
▁tickets	-5088
▁weighed	-5089
▁anytime	-5090
bobby	-5091
▁pride	-5092
▁steve	-5093
anny	-5094
cake	-5095
somet	-5096
▁prop	-5097
aved	-5098
▁frank	-5099
▁unfortunately	-5100
▁poking	-5101
▁swims	-5102
jam	-5103
▁poems	-5104
▁wonders	-5105
cious	-5106
▁strings	-5107
▁recognized	-5108
fied	-5109
▁siren	-5110
▁opinion	-5111
▁wanting	-5112
cl	-5113
▁awe	-5114
▁gained	-5115
▁tricked	-5116
▁crashed	-5117
▁david	-5118
▁worker	-5119
▁seesaw	-5120
▁yelling	-5121
▁acting	-5122
▁zooming	-5123
▁chef	-5124
▁draws	-5125
▁scooped	-5126
▁prepared	-5127
▁bunnies	-5128
▁grinned	-5129
ira	-5130
▁happiest	-5131
▁goodnight	-5132
ues	-5133
▁sneaked	-5134
▁milly	-5135
▁slim	-5136
▁eff	-5137
▁pause	-5138
▁respons	-5139
▁owned	-5140
ales	-5141
ember	-5142
▁secrets	-5143
▁struck	-5144
▁pedals	-5145
▁knelt	-5146
remember	-5147
▁keeper	-5148
▁decorated	-5149
▁birdie	-5150
▁agreement	-5151
▁horns	-5152
▁obey	-5153
▁tallest	-5154
nie	-5155
ollie	-5156
ley	-5157
ped	-5158
▁decides	-5159
zoom	-5160
▁rachel	-5161
▁behaved	-5162
lier	-5163
▁tugged	-5164
▁sides	-5165
▁precious	-5166
zen	-5167
▁sparkling	-5168
cky	-5169
▁chirped	-5170
act	-5171
▁purr	-5172
▁zoe	-5173
▁twinkle	-5174
ab	-5175
▁balancing	-5176
▁stro	-5177
▁curiosity	-5178
▁repeated	-5179
▁contain	-5180
▁claps	-5181
affes	-5182
▁snowballs	-5183
▁giraffes	-5184
▁spending	-5185
una	-5186
▁ourselves	-5187
▁rele	-5188
ana	-5189
▁kindly	-5190
omas	-5191
▁writes	-5192
▁frozen	-5193
ppers	-5194
▁slimy	-5195
ided	-5196
▁abigail	-5197
▁frosting	-5198
▁katie	-5199
▁hissed	-5200
shing	-5201
▁honk	-5202
▁effort	-5203
▁buzzing	-5204
▁admiring	-5205
▁struggled	-5206
ho	-5207
▁sweeties	-5208
▁staying	-5209
▁brushed	-5210
▁bloomed	-5211
▁smiley	-5212
▁comfy	-5213
▁rubbing	-5214
▁beside	-5215
▁rocking	-5216
▁polished	-5217
tr	-5218
▁radishes	-5219
▁folding	-5220
▁whatever	-5221
▁thrilled	-5222
▁stripes	-5223
vroom	-5224
▁pebbles	-5225
icing	-5226
▁pockets	-5227
▁fuzzy	-5228
▁earlier	-5229
choo	-5230
▁machines	-5231
▁hugging	-5232
▁seems	-5233
▁circus	-5234
▁cuddles	-5235
ush	-5236
yummy	-5237
▁pippa	-5238
▁traveled	-5239
▁eag	-5240
▁opening	-5241
ducky	-5242
▁loving	-5243
▁cracked	-5244
ities	-5245
▁eight	-5246
▁matching	-5247
▁zookeeper	-5248
▁dusty	-5249
▁spraying	-5250
▁surrounded	-5251
▁sting	-5252
▁gaze	-5253
▁demanded	-5254
▁paintings	-5255
▁removed	-5256
▁toss	-5257
▁hardly	-5258
rex	-5259
▁catches	-5260
▁belly	-5261
▁powers	-5262
tles	-5263
▁loaded	-5264
▁pots	-5265
▁splashes	-5266
▁petted	-5267
▁chr	-5268
▁stare	-5269
▁apologize	-5270
▁organizing	-5271
▁diving	-5272
▁eagle	-5273
▁rocked	-5274
flow	-5275
▁comforted	-5276
▁struggling	-5277
▁decision	-5278
▁pastels	-5279
▁ribbons	-5280
▁sled	-5281
sometimes	-5282
▁sadness	-5283
itten	-5284
▁expected	-5285
▁steep	-5286
▁neighbors	-5287
▁protected	-5288
▁chases	-5289
ern	-5290
whis	-5291
▁granted	-5292
thanks	-5293
▁crumb	-5294
▁purred	-5295
▁heroes	-5296
▁sunlight	-5297
rr	-5298
▁conf	-5299
▁dragons	-5300
▁sparkles	-5301
▁robby	-5302
▁dipped	-5303
ippy	-5304
▁roads	-5305
whiskers	-5306
▁lied	-5307
▁scru	-5308
▁safer	-5309
▁grandmother	-5310
▁argued	-5311
▁crabs	-5312
▁discovery	-5313
loe	-5314
▁goals	-5315
▁peered	-5316
▁deser	-5317
▁spiders	-5318
▁wherever	-5319
▁fasc	-5320
▁polishing	-5321
▁parties	-5322
aster	-5323
during	-5324
▁buckets	-5325
▁buildings	-5326
▁beard	-5327
▁refu	-5328
▁planets	-5329
▁wedding	-5330
▁tails	-5331
beep	-5332
...	-5333
▁released	-5334
▁sausages	-5335
▁gogo	-5336
▁patience	-5337
▁contro	-5338
▁argu	-5339
▁bottles	-5340
▁roaring	-5341
▁limes	-5342
▁wiggled	-5343
uh	-5344
▁teased	-5345
▁arguing	-5346
ud	-5347
first	-5348
▁movies	-5349
▁dragged	-5350
▁hoot	-5351
▁shirts	-5352
▁bumpy	-5353
▁clearing	-5354
▁gathering	-5355
▁airpl	-5356
▁cuddle	-5357
▁stretching	-5358
joyed	-5359
▁refre	-5360
▁padd	-5361
▁teaches	-5362
▁overjoyed	-5363
▁explorer	-5364
▁soaring	-5365
▁olly	-5366
▁actually	-5367
▁sighs	-5368
▁peppers	-5369
▁continue	-5370
▁quarreling	-5371
▁rip	-5372
▁smallest	-5373
▁fascin	-5374
▁caut	-5375
▁weeks	-5376
▁challenge	-5377
▁drives	-5378
▁cubes	-5379
▁talent	-5380
▁pouring	-5381
▁situ	-5382
▁bank	-5383
agers	-5384
▁wondering	-5385
▁cuts	-5386
▁pretends	-5387
▁mane	-5388
achoo	-5389
▁shivered	-5390
▁penguins	-5391
▁rings	-5392
▁villagers	-5393
▁united	-5394
▁darker	-5395
free	-5396
▁youn	-5397
▁piggy	-5398
▁onwards	-5399
▁bead	-5400
▁jan	-5401
▁prettiest	-5402
leted	-5403
flowers	-5404
▁company	-5405
▁realize	-5406
▁baker	-5407
▁bedtime	-5408
▁knights	-5409
whe	-5410
▁control	-5411
▁completed	-5412
ib	-5413
▁flags	-5414
ther	-5415
▁yum	-5416
▁shrug	-5417
▁playroom	-5418
▁actions	-5419
luna	-5420
▁ava	-5421
die	-5422
▁kites	-5423
umble	-5424
▁learns	-5425
▁gotten	-5426
mandy	-5427
▁wires	-5428
▁packing	-5429
▁fears	-5430
▁destination	-5431
▁satis	-5432
▁reply	-5433
▁mountains	-5434
▁responsible	-5435
▁wrist	-5436
▁third	-5437
▁fault	-5438
bbing	-5439
▁applauded	-5440
tiny	-5441
▁scrubbed	-5442
▁crept	-5443
▁guns	-5444
▁pencils	-5445
chirp	-5446
mar	-5447
▁wins	-5448
▁awake	-5449
▁visiting	-5450
▁joking	-5451
▁sticking	-5452
icorn	-5453
▁neither	-5454
▁thomas	-5455
▁peas	-5456
▁staring	-5457
▁startled	-5458
▁wound	-5459
▁reminder	-5460
▁uses	-5461
▁julie	-5462
▁dent	-5463
▁unicorn	-5464
▁hitting	-5465
peter	-5466
▁healed	-5467
▁screaming	-5468
▁helmets	-5469
▁scur	-5470
▁snakes	-5471
watch	-5472
▁begin	-5473
▁glitter	-5474
▁whose	-5475
▁firefight	-5476
stay	-5477
ica	-5478
silly	-5479
▁chips	-5480
▁towels	-5481
seek	-5482
▁lollipops	-5483
▁masks	-5484
fo	-5485
▁creation	-5486
▁beth	-5487
▁wasted	-5488
ler	-5489
run	-5490
▁items	-5491
▁seas	-5492
▁scales	-5493
▁instruct	-5494
jake	-5495
▁outdo	-5496
int	-5497
▁heav	-5498
car	-5499
▁deal	-5500
zes	-5501
▁hippy	-5502
▁died	-5503
▁batteries	-5504
▁abby	-5505
▁logs	-5506
▁arrive	-5507
▁perched	-5508
▁pumpkins	-5509
▁weren	-5510
▁accom	-5511
▁practicing	-5512
▁roses	-5513
▁achieve	-5514
▁candies	-5515
▁swoop	-5516
▁instructions	-5517
▁agrees	-5518
▁project	-5519
▁wid	-5520
▁chirping	-5521
hins	-5522
▁protecting	-5523
▁puff	-5524
▁shelves	-5525
▁everybody	-5526
▁patiently	-5527
▁videos	-5528
▁brownie	-5529
▁exact	-5530
▁parked	-5531
▁bop	-5532
▁stude	-5533
▁activ	-5534
▁promises	-5535
ew	-5536
▁dolphins	-5537
▁shoulders	-5538
ining	-5539
▁blows	-5540
son	-5541
▁josh	-5542
san	-5543
▁airplane	-5544
jamas	-5545
▁examined	-5546
ners	-5547
▁tasks	-5548
▁accompl	-5549
sa	-5550
ops	-5551
doggy	-5552
away	-5553
emily	-5554
▁beads	-5555
▁jamie	-5556
▁crumbs	-5557
▁reaching	-5558
▁bowls	-5559
▁catty	-5560
▁listens	-5561
allow	-5562
bad	-5563
▁brand	-5564
▁bunch	-5565
▁cough	-5566
aded	-5567
▁tru	-5568
cakes	-5569
▁improved	-5570
▁rainbows	-5571
▁requested	-5572
▁remote	-5573
▁mira	-5574
▁alien	-5575
uest	-5576
apping	-5577
▁guest	-5578
▁copy	-5579
▁photos	-5580
▁choo	-5581
▁stumble	-5582
▁cheering	-5583
bel	-5584
cc	-5585
oming	-5586
ument	-5587
▁reluct	-5588
▁cans	-5589
▁workers	-5590
sammy	-5591
▁timer	-5592
▁adult	-5593
▁replaced	-5594
▁ty	-5595
▁chloe	-5596
▁stern	-5597
▁twirl	-5598
▁complaining	-5599
▁curly	-5600
▁puppet	-5601
▁passing	-5602
▁cautious	-5603
▁confl	-5604
▁misses	-5605
▁curtains	-5606
▁rubs	-5607
▁beneath	-5608
event	-5609
▁rolls	-5610
▁conflict	-5611
weet	-5612
▁patted	-5613
▁pajamas	-5614
▁outdoors	-5615
▁drums	-5616
▁seven	-5617
▁sweat	-5618
chirpy	-5619
▁mes	-5620
dies	-5621
ashed	-5622
▁closes	-5623
eventually	-5624
▁lap	-5625
▁tune	-5626
▁filling	-5627
▁refuse	-5628
▁mission	-5629
angled	-5630
esome	-5631
oops	-5632
▁faced	-5633
▁balanced	-5634
▁rule	-5635
ual	-5636
▁rescued	-5637
neath	-5638
▁quacked	-5639
▁doctors	-5640
▁fairies	-5641
▁policeman	-5642
▁pastries	-5643
▁rockets	-5644
▁vent	-5645
▁introdu	-5646
bert	-5647
▁guys	-5648
▁awesome	-5649
▁observed	-5650
▁underneath	-5651
great	-5652
isten	-5653
▁becoming	-5654
▁exactly	-5655
▁reluctantly	-5656
roar	-5657
fine	-5658
▁teamwork	-5659
▁tractor	-5660
▁remembering	-5661
▁blooming	-5662
▁pout	-5663
mies	-5664
▁fir	-5665
bunny	-5666
▁todd	-5667
▁insist	-5668
▁farther	-5669
▁fascinated	-5670
▁ally	-5671
▁windy	-5672
▁starfish	-5673
▁ris	-5674
▁jilly	-5675
▁pointy	-5676
▁desert	-5677
miss	-5678
▁included	-5679
cob	-5680
zie	-5681
▁cause	-5682
▁truly	-5683
▁helpers	-5684
▁wobbled	-5685
▁slam	-5686
▁paddle	-5687
▁prayer	-5688
▁recording	-5689
▁spong	-5690
▁sights	-5691
▁firm	-5692
some	-5693
ggy	-5694
grandpa	-5695
▁caused	-5696
▁ast	-5697
▁nina	-5698
▁ev	-5699
▁anne	-5700
▁thro	-5701
▁ham	-5702
▁supplies	-5703
benny	-5704
▁inviting	-5705
▁traded	-5706
▁ornaments	-5707
▁adding	-5708
▁minerals	-5709
▁thorn	-5710
▁throat	-5711
▁situation	-5712
▁neighbourhood	-5713
▁itchy	-5714
▁snowmen	-5715
▁valued	-5716
bbly	-5717
▁bare	-5718
▁dots	-5719
▁stays	-5720
▁tables	-5721
hold	-5722
poppy	-5723
▁prettier	-5724
▁ni	-5725
▁chuck	-5726
▁foxy	-5727
▁hanna	-5728
▁snuggles	-5729
▁steady	-5730
▁adam	-5731
▁usually	-5732
▁faraway	-5733
▁forks	-5734
nta	-5735
▁glasses	-5736
susie	-5737
▁insects	-5738
▁swooped	-5739
▁santa	-5740
indy	-5741
▁smar	-5742
▁usual	-5743
▁cent	-5744
▁sponge	-5745
▁sneezing	-5746
▁loading	-5747
▁solut	-5748
▁winked	-5749
▁homework	-5750
▁jeff	-5751
mine	-5752
▁susan	-5753
▁pans	-5754
▁den	-5755
▁sobbed	-5756
▁growling	-5757
▁noses	-5758
▁lena	-5759
▁gems	-5760
▁confident	-5761
▁superheroes	-5762
agull	-5763
▁scarves	-5764
▁yourselves	-5765
though	-5766
▁wow	-5767
▁seagull	-5768
▁librarian	-5769
▁tum	-5770
▁biting	-5771
ott	-5772
▁smarter	-5773
▁onions	-5774
▁knowled	-5775
▁knowledge	-5776
▁claire	-5777
▁jackets	-5778
ido	-5779
▁kicks	-5780
▁giggling	-5781
▁princesses	-5782
..."	-5783
▁skelly	-5784
those	-5785
▁clowns	-5786
▁surface	-5787
▁untie	-5788
▁squares	-5789
vin	-5790
yeah	-5791
ora	-5792
▁muscle	-5793
▁henny	-5794
▁warnings	-5795
▁reads	-5796
bie	-5797
▁luke	-5798
▁younger	-5799
▁ropes	-5800
shh	-5801
▁hops	-5802
ba	-5803
▁crowd	-5804
▁desp	-5805
▁praying	-5806
▁paddled	-5807
▁wears	-5808
▁delivered	-5809
▁buzzed	-5810
▁complained	-5811
▁luckily	-5812
▁leap	-5813
▁stem	-5814
▁leaning	-5815
▁direction	-5816
▁dived	-5817
▁tangled	-5818
▁jones	-5819
▁napkins	-5820
days	-5821
▁rover	-5822
▁badge	-5823
▁linda	-5824
▁satisfied	-5825
▁hannah	-5826
cers	-5827
▁vowed	-5828
▁risk	-5829
▁tickled	-5830
▁afterwards	-5831
▁pec	-5832
▁covers	-5833
fit	-5834
▁jessie	-5835
▁lett	-5836
▁yells	-5837
une	-5838
▁salty	-5839
▁arrows	-5840
▁refreshed	-5841
▁speaking	-5842
▁cous	-5843
▁jenna	-5844
▁knocks	-5845
ense	-5846
▁lettuce	-5847
▁chat	-5848
▁dodo	-5849
▁signed	-5850
▁wipes	-5851
▁guessing	-5852
▁ripe	-5853
▁creating	-5854
▁hides	-5855
▁choices	-5856
▁slower	-5857
zip	-5858
▁seeker	-5859
▁singer	-5860
▁magnets	-5861
▁introduced	-5862
▁rainy	-5863
buzz	-5864
cuse	-5865
excuse	-5866
▁froze	-5867
▁squeal	-5868
▁joked	-5869
▁mushrooms	-5870
boys	-5871
▁avo	-5872
▁paying	-5873
▁toaster	-5874
▁explorers	-5875
▁written	-5876
▁dara	-5877
▁discovering	-5878
▁refle	-5879
▁ranger	-5880
▁provided	-5881
▁wandering	-5882
▁betsy	-5883
brush	-5884
▁knees	-5885
like	-5886
▁hider	-5887
▁images	-5888
▁behaving	-5889
▁barely	-5890
▁dee	-5891
▁cobwebs	-5892
ences	-5893
▁stung	-5894
▁tipto	-5895
icky	-5896
▁nine	-5897
?",	-5898
▁marked	-5899
▁leading	-5900
▁squeak	-5901
whee	-5902
▁restored	-5903
▁gears	-5904
▁competition	-5905
anging	-5906
▁master	-5907
▁greet	-5908
▁bravery	-5909
ados	-5910
▁pens	-5911
▁buggy	-5912
▁needles	-5913
▁outfit	-5914
oline	-5915
▁wishing	-5916
▁properly	-5917
▁rusty	-5918
▁ventured	-5919
▁dances	-5920
▁ziggy	-5921
▁fab	-5922
▁click	-5923
▁conse	-5924
▁darkness	-5925
▁deserve	-5926
▁despite	-5927
amb	-5928
tweet	-5929
▁unf	-5930
▁matters	-5931
▁sunflowers	-5932
ids	-5933
▁mints	-5934
▁swans	-5935
▁burst	-5936
freeze	-5937
▁ruining	-5938
▁blocking	-5939
bell	-5940
listen	-5941
▁chefs	-5942
▁suzie	-5943
▁vines	-5944
▁jon	-5945
▁consequ	-5946
coat	-5947
▁fabric	-5948
▁avocados	-5949
follow	-5950
▁entire	-5951
▁least	-5952
▁performed	-5953
▁basement	-5954
▁flames	-5955
▁pins	-5956
▁heavier	-5957
▁scratches	-5958
▁cautiously	-5959
iving	-5960
▁losing	-5961
▁twirling	-5962
true	-5963
ja	-5964
▁conn	-5965
▁swords	-5966
▁milo	-5967
haust	-5968
▁scurried	-5969
▁relief	-5970
▁raincoat	-5971
boat	-5972
▁exhaust	-5973
▁silent	-5974
▁jobs	-5975
step	-5976
▁chip	-5977
▁necklaces	-5978
▁bows	-5979
▁tricky	-5980
▁rotting	-5981
"."	-5982
▁sewed	-5983
▁snat	-5984
▁lighter	-5985
▁cott	-5986
▁fido	-5987
packed	-5988
▁jacob	-5989
ru	-5990
▁solution	-5991
▁decorating	-5992
▁genie	-5993
▁cathy	-5994
▁tires	-5995
▁nana	-5996
▁stain	-5997
▁consequences	-5998
big	-5999
▁races	-6000
▁unpacked	-6001
▁partic	-6002
rance	-6003
▁bumps	-6004
▁wraps	-6005
▁lifting	-6006
▁gina	-6007
▁triangles	-6008
▁jay	-6009
▁peeking	-6010
isies	-6011
▁backed	-6012
▁anno	-6013
▁dentist	-6014
anes	-6015
▁daisies	-6016
vers	-6017
▁mer	-6018
▁growls	-6019
▁accomplish	-6020
iar	-6021
▁grabbing	-6022
▁although	-6023
▁hesitated	-6024
▁comm	-6025
▁ties	-6026
▁crackers	-6027
▁sweets	-6028
▁stomped	-6029
▁buying	-6030
▁mater	-6031
▁rolly	-6032
▁bodies	-6033
▁figured	-6034
▁material	-6035
▁freed	-6036
▁cheeks	-6037
▁grows	-6038
▁owners	-6039
▁flavor	-6040
▁suffering	-6041
▁lungs	-6042
▁oliver	-6043
▁groups	-6044
kery	-6045
▁fact	-6046
▁bakery	-6047
▁exhausted	-6048
▁nect	-6049
▁nectar	-6050
▁jessica	-6051
▁forehead	-6052
eed	-6053
▁interested	-6054
▁repa	-6055
▁thud	-6056
▁sale	-6057
▁darling	-6058
ept	-6059
▁cara	-6060
▁month	-6061
bang	-6062
pete	-6063
aut	-6064
▁chuckled	-6065
▁swept	-6066
?'	-6067
▁twinkling	-6068
▁tapped	-6069
▁recip	-6070
polly	-6071
▁feast	-6072
nty	-6073
▁cuddly	-6074
▁tunnels	-6075
indr	-6076
▁passports	-6077
▁worries	-6078
▁raindr	-6079
▁reason	-6080
▁repaired	-6081
▁activities	-6082
band	-6083
▁pecked	-6084
▁entrance	-6085
ese	-6086
▁meals	-6087
▁completely	-6088
▁baths	-6089
▁particular	-6090
▁nests	-6091
▁mailed	-6092
ctions	-6093
▁colored	-6094
▁scra	-6095
▁sense	-6096
▁waiter	-6097
▁dam	-6098
▁plenty	-6099
▁wobble	-6100
for	-6101
▁feeding	-6102
▁slammed	-6103
▁gle	-6104
▁christ	-6105
▁players	-6106
fla	-6107
▁budge	-6108
▁lamb	-6109
▁forgets	-6110
lola	-6111
▁handful	-6112
tw	-6113
▁printing	-6114
under	-6115
▁mikey	-6116
▁stool	-6117
jump	-6118
▁wiping	-6119
▁films	-6120
▁talks	-6121
guess	-6122
ossible	-6123
▁impossible	-6124
▁determination	-6125
▁designed	-6126
▁squish	-6127
▁opp	-6128
▁chop	-6129
▁spreading	-6130
▁tara	-6131
▁buses	-6132
▁sewing	-6133
▁spikes	-6134
▁suitcase	-6135
▁bars	-6136
▁counts	-6137
rink	-6138
▁steer	-6139
▁stolen	-6140
▁fires	-6141
▁honked	-6142
▁kayla	-6143
avi	-6144
blings	-6145
▁rumble	-6146
▁separated	-6147
▁siblings	-6148
▁woo	-6149
▁celebrating	-6150
▁fever	-6151
▁changing	-6152
jerry	-6153
▁camping	-6154
mas	-6155
▁intr	-6156
▁frosty	-6157
▁lower	-6158
▁behavi	-6159
▁age	-6160
▁celebration	-6161
▁liqu	-6162
▁squealed	-6163
▁dollhouse	-6164
▁cash	-6165
▁kittens	-6166
▁backward	-6167
▁cindy	-6168
▁sway	-6169
▁snatched	-6170
▁kings	-6171
▁twice	-6172
aren	-6173
▁julia	-6174
▁larry	-6175
▁somebody	-6176
child	-6177
itched	-6178
ives	-6179
▁shrinking	-6180
▁shoo	-6181
cent	-6182
weed	-6183
▁ache	-6184
take	-6185
▁shops	-6186
▁puppies	-6187
▁pancakes	-6188
essie	-6189
▁touches	-6190
kes	-6191
▁sparks	-6192
▁avoid	-6193
▁spat	-6194
tha	-6195
▁rotten	-6196
▁seaweed	-6197
▁twisting	-6198
hog	-6199
▁whoever	-6200
▁wrapping	-6201
▁paths	-6202
▁skunk	-6203
▁playhouse	-6204
▁dropping	-6205
▁surprising	-6206
ggie	-6207
▁calmed	-6208
▁screws	-6209
▁hearing	-6210
thest	-6211
▁stroked	-6212
bet	-6213
▁untied	-6214
fly	-6215
▁astron	-6216
▁students	-6217
▁tig	-6218
▁loops	-6219
▁snowfla	-6220
▁pam	-6221
▁liquid	-6222
bee	-6223
▁wakes	-6224
▁planning	-6225
▁astronaut	-6226
gic	-6227
▁pennies	-6228
▁bracelets	-6229
▁tramp	-6230
▁thrown	-6231
shions	-6232
▁plain	-6233
grace	-6234
▁firefly	-6235
annie	-6236
sunny	-6237
▁aimed	-6238
cho	-6239
▁dancers	-6240
▁zebras	-6241
▁lifts	-6242
▁intrig	-6243
mrs	-6244
tina	-6245
▁fins	-6246
▁cust	-6247
fire	-6248
immer	-6249
▁objects	-6250
▁christmas	-6251
▁aud	-6252
▁toot	-6253
usband	-6254
▁rewarded	-6255
▁directions	-6256
▁husband	-6257
irl	-6258
lings	-6259
mo	-6260
▁reflection	-6261
▁hedgehog	-6262
soph	-6263
▁clues	-6264
▁roo	-6265
zzie	-6266
▁dod	-6267
▁rising	-6268
▁poster	-6269
llen	-6270
pipp	-6271
▁leads	-6272
▁increased	-6273
▁mi	-6274
▁cousin	-6275
quack	-6276
▁blocked	-6277
▁momma	-6278
▁custom	-6279
▁forgetting	-6280
iles	-6281
▁rollie	-6282
▁sophia	-6283
▁beginning	-6284
▁trampoline	-6285
▁storekeeper	-6286
▁aff	-6287
▁mesmer	-6288
▁pouted	-6289
▁hu	-6290
yond	-6291
▁beyond	-6292
paul	-6293
▁borrowed	-6294
▁countryside	-6295
▁vehicles	-6296
▁instrument	-6297
ring	-6298
▁lizzie	-6299
▁frowning	-6300
ivity	-6301
always	-6302
▁marker	-6303
▁whispers	-6304
▁deli	-6305
▁biggie	-6306
▁presses	-6307
▁robo	-6308
johnny	-6309
▁nick	-6310
▁san	-6311
▁damage	-6312
▁health	-6313
▁laying	-6314
▁flapping	-6315
▁slips	-6316
▁swimsuit	-6317
idents	-6318
▁merry	-6319
▁wee	-6320
▁warmer	-6321
▁tiptoed	-6322
▁intrigued	-6323
▁flick	-6324
▁regretted	-6325
itted	-6326
▁yelp	-6327
▁glued	-6328
▁rains	-6329
▁missy	-6330
▁sparky	-6331
▁creations	-6332
lling	-6333
▁robert	-6334
▁colder	-6335
▁streets	-6336
▁shaped	-6337
▁indeed	-6338
▁cushions	-6339
▁granny	-6340
mike	-6341
ael	-6342
▁june	-6343
▁creativity	-6344
may	-6345
▁farthest	-6346
▁lending	-6347
▁bells	-6348
char	-6349
ky	-6350
bear	-6351
▁coop	-6352
▁strongest	-6353
stick	-6354
▁fits	-6355
▁sank	-6356
▁dollars	-6357
ccoon	-6358
▁stella	-6359
een	-6360
▁earn	-6361
▁raccoon	-6362
▁including	-6363
▁cashier	-6364
▁tit	-6365
▁guy	-6366
▁spells	-6367
▁delivery	-6368
▁sniffs	-6369
▁stopping	-6370
▁accidents	-6371
▁trembled	-6372
george	-6373
▁source	-6374
▁wobbly	-6375
▁sailboat	-6376
▁single	-6377
▁recommended	-6378
dri	-6379
itches	-6380
▁belts	-6381
▁seasons	-6382
▁forgiving	-6383
▁accomplishment	-6384
▁hopeful	-6385
ourag	-6386
▁ends	-6387
ude	-6388
▁geese	-6389
▁turtles	-6390
▁die	-6391
▁gross	-6392
▁guests	-6393
ucked	-6394
▁encourag	-6395
urry	-6396
ichael	-6397
▁plans	-6398
▁artist	-6399
▁sy	-6400
▁pops	-6401
▁supported	-6402
▁performance	-6403
▁suffered	-6404
toby	-6405
ters	-6406
▁slowed	-6407
▁spins	-6408
▁vanilla	-6409
▁raindrops	-6410
▁flavors	-6411
ertain	-6412
▁izzy	-6413
▁jojo	-6414
▁labels	-6415
▁beam	-6416
▁tying	-6417
▁pours	-6418
ility	-6419
▁stands	-6420
▁chewy	-6421
▁recipe	-6422
iece	-6423
uing	-6424
▁curiously	-6425
▁ruff	-6426
▁cloudy	-6427
▁willing	-6428
put	-6429
▁ry	-6430
▁drawn	-6431
▁queens	-6432
▁seconds	-6433
▁wept	-6434
▁imagining	-6435
print	-6436
arac	-6437
▁charac	-6438
▁corners	-6439
wk	-6440
▁drivers	-6441
▁preparing	-6442
▁grip	-6443
ribbit	-6444
dave	-6445
▁hallway	-6446
itude	-6447
▁abbie	-6448
illed	-6449
▁among	-6450
ne	-6451
▁widened	-6452
▁rudy	-6453
▁laura	-6454
▁sailors	-6455
▁robber	-6456
▁unsure	-6457
▁giggles	-6458
▁grocer	-6459
▁sharks	-6460
▁sending	-6461
ellie	-6462
▁pigeons	-6463
▁talented	-6464
▁beaky	-6465
▁watering	-6466
▁angels	-6467
found	-6468
▁notes	-6469
▁echo	-6470
▁softer	-6471
▁aside	-6472
▁knots	-6473
▁squishy	-6474
▁symbols	-6475
▁treehouse	-6476
▁tipped	-6477
▁horiz	-6478
▁ouch	-6479
arry	-6480
▁blinking	-6481
▁achieved	-6482
rob	-6483
▁horizon	-6484
▁delivering	-6485
▁pupils	-6486
▁hotter	-6487
▁pleasure	-6488
▁det	-6489
▁burrow	-6490
moo	-6491
teddy	-6492
mill	-6493
▁ryan	-6494
▁robots	-6495
▁rather	-6496
▁bandages	-6497
▁figures	-6498
▁passe	-6499
▁emmy	-6500
▁bubb	-6501
▁mate	-6502
▁tummies	-6503
▁tis	-6504
rat	-6505
▁hour	-6506
▁coup	-6507
shrink	-6508
alph	-6509
▁tia	-6510
▁merma	-6511
▁roars	-6512
▁tossed	-6513
▁backwards	-6514
friend	-6515
▁tigers	-6516
▁cor	-6517
sl	-6518
▁zipping	-6519
▁lace	-6520
▁robbie	-6521
▁firefighters	-6522
▁groceries	-6523
▁tuck	-6524
▁chris	-6525
▁peep	-6526
▁ron	-6527
spe	-6528
▁prove	-6529
▁dip	-6530
▁glee	-6531
▁blown	-6532
▁icing	-6533
▁overcome	-6534
▁maker	-6535
▁screwdri	-6536
▁titi	-6537
▁maya	-6538
▁sped	-6539
▁squeezing	-6540
▁hawk	-6541
▁surfboard	-6542
▁shovels	-6543
gers	-6544
rose	-6545
▁slices	-6546
ddled	-6547
sna	-6548
▁heading	-6549
▁ignoring	-6550
ingo	-6551
eds	-6552
▁disturbing	-6553
lilly	-6554
▁reversed	-6555
years	-6556
▁swall	-6557
▁waking	-6558
▁flipped	-6559
▁swallowed	-6560
▁scored	-6561
▁barky	-6562
pare	-6563
▁encouraging	-6564
▁gardener	-6565
quick	-6566
kids	-6567
henry	-6568
sty	-6569
bbles	-6570
▁miles	-6571
onies	-6572
▁center	-6573
▁chosen	-6574
▁rivers	-6575
▁slipping	-6576
▁couple	-6577
▁flip	-6578
▁designs	-6579
▁screwdriver	-6580
▁firefighter	-6581
▁markers	-6582
▁lia	-6583
▁peck	-6584
▁creamy	-6585
▁respond	-6586
however	-6587
▁suits	-6588
▁thorns	-6589
pecting	-6590
▁frowns	-6591
▁jars	-6592
▁fluttered	-6593
▁secure	-6594
▁sprinkled	-6595
alex	-6596
▁express	-6597
unfortunately	-6598
▁oysters	-6599
▁zee	-6600
james	-6601
▁aren	-6602
▁tissue	-6603
▁tighter	-6604
▁haircuts	-6605
▁firmly	-6606
▁fleas	-6607
▁ponies	-6608
▁daring	-6609
fall	-6610
▁shown	-6611
▁familiar	-6612
ashes	-6613
▁crossing	-6614
▁bathing	-6615
▁surfing	-6616
▁performing	-6617
asm	-6618
ments	-6619
▁drawers	-6620
abra	-6621
▁holly	-6622
▁audience	-6623
open	-6624
▁bits	-6625
▁coloured	-6626
▁ais	-6627
▁shady	-6628
▁nervously	-6629
fro	-6630
▁pedaled	-6631
▁gracefully	-6632
▁nu	-6633
▁mixture	-6634
ounce	-6635
sophie	-6636
dolly	-6637
▁yielded	-6638
▁magician	-6639
▁hangers	-6640
lulu	-6641
ades	-6642
▁crowns	-6643
▁gaz	-6644
▁martha	-6645
ans	-6646
▁pays	-6647
▁stroke	-6648
ona	-6649
▁wrink	-6650
▁knives	-6651
▁napped	-6652
▁angri	-6653
▁minded	-6654
▁respected	-6655
lle	-6656
▁tested	-6657
luck	-6658
▁grandchild	-6659
zoomy	-6660
kend	-6661
▁sails	-6662
▁neighbours	-6663
▁wisely	-6664
▁enthusi	-6665
ms	-6666
▁rin	-6667
vered	-6668
▁beeh	-6669
bessie	-6670
▁simon	-6671
▁enthusiasm	-6672
even	-6673
▁darlings	-6674
▁nightmares	-6675
dear	-6676
▁stitches	-6677
ca	-6678
▁melons	-6679
▁tweetie	-6680
▁thoughts	-6681
▁nood	-6682
▁reminds	-6683
▁lies	-6684
▁zoey	-6685
▁lessons	-6686
▁weekend	-6687
▁temper	-6688
luckily	-6689
antha	-6690
ilted	-6691
▁spits	-6692
▁teams	-6693
▁surroundings	-6694
spike	-6695
ongrat	-6696
▁grandpare	-6697
▁paintbrush	-6698
▁fills	-6699
▁mermaid	-6700
▁exce	-6701
▁elf	-6702
▁hoops	-6703
▁mabel	-6704
▁cleaner	-6705
▁sports	-6706
▁sill	-6707
▁elbow	-6708
▁willy	-6709
▁longest	-6710
▁panicked	-6711
▁scooters	-6712
▁explo	-6713
sm	-6714
iding	-6715
ushed	-6716
▁amount	-6717
yed	-6718
▁lent	-6719
alright	-6720
▁beloved	-6721
▁bully	-6722
charlie	-6723
▁magazines	-6724
ongratul	-6725
pat	-6726
▁beehive	-6727
fus	-6728
pippin	-6729
▁repeating	-6730
immering	-6731
▁pinching	-6732
▁tess	-6733
▁karen	-6734
ably	-6735
▁janie	-6736
▁tubes	-6737
▁bam	-6738
▁lenny	-6739
umbling	-6740
▁terrified	-6741
pop	-6742
▁sweetest	-6743
▁reass	-6744
▁discussed	-6745
elia	-6746
▁bulbs	-6747
pen	-6748
crow	-6749
▁sweep	-6750
joey	-6751
▁guide	-6752
▁spoonful	-6753
using	-6754
▁wendy	-6755
▁understands	-6756
▁ana	-6757
▁puzzled	-6758
▁testing	-6759
▁marsh	-6760
verse	-6761
▁manners	-6762
▁crew	-6763
▁abi	-6764
▁grassy	-6765
maggie	-6766
▁sprang	-6767
onna	-6768
▁speeding	-6769
▁polar	-6770
▁spies	-6771
▁breathed	-6772
ita	-6773
▁solving	-6774
steps	-6775
▁bally	-6776
▁unw	-6777
▁camel	-6778
▁arr	-6779
▁neare	-6780
▁scarecrow	-6781
▁sheets	-6782
▁michael	-6783
which	-6784
▁coug	-6785
▁purp	-6786
cra	-6787
▁rushing	-6788
▁footsteps	-6789
leave	-6790
▁donkey	-6791
▁mesmerized	-6792
▁focu	-6793
millie	-6794
ounced	-6795
▁focused	-6796
▁joining	-6797
▁licking	-6798
clo	-6799
▁spice	-6800
▁braver	-6801
▁hesitant	-6802
ilda	-6803
hurry	-6804
baby	-6805
▁popp	-6806
reverse	-6807
▁floppy	-6808
bbie	-6809
jazz	-6810
▁healing	-6811
▁anger	-6812
▁burying	-6813
▁evil	-6814
▁judy	-6815
▁marie	-6816
▁greeted	-6817
wise	-6818
▁worn	-6819
▁changes	-6820
▁bicycles	-6821
▁materials	-6822
?!"	-6823
magic	-6824
▁stored	-6825
betty	-6826
▁aeroplanes	-6827
▁peacefully	-6828
▁seals	-6829
▁baa	-6830
iment	-6831
▁mixy	-6832
▁ralph	-6833
▁ships	-6834
▁within	-6835
danny	-6836
bit	-6837
▁worrying	-6838
▁nuzz	-6839
▁gonna	-6840
▁und	-6841
▁politely	-6842
▁spills	-6843
▁rats	-6844
▁shall	-6845
▁scattering	-6846
▁relaxing	-6847
▁dump	-6848
▁madd	-6849
▁blast	-6850
▁believing	-6851
▁ger	-6852
▁months	-6853
▁kip	-6854
▁bamboo	-6855
▁pea	-6856
▁humans	-6857
▁stacked	-6858
boy	-6859
rest	-6860
snow	-6861
▁tasting	-6862
▁loses	-6863
▁gazing	-6864
▁baskets	-6865
▁soaking	-6866
eve	-6867
▁clue	-6868
▁travelled	-6869
five	-6870
▁jackie	-6871
▁davey	-6872
▁temperature	-6873
▁dripping	-6874
▁tar	-6875
▁slither	-6876
rect	-6877
harry	-6878
▁punishment	-6879
dding	-6880
snap	-6881
umbled	-6882
▁snowflakes	-6883
father	-6884
▁force	-6885
kat	-6886
bill	-6887
▁banged	-6888
▁crashing	-6889
isc	-6890
▁gest	-6891
▁nan	-6892
▁swimmer	-6893
▁dressing	-6894
▁cells	-6895
▁flight	-6896
▁toddler	-6897
uncle	-6898
▁beeped	-6899
▁resisted	-6900
▁focus	-6901
▁quarreled	-6902
▁ramp	-6903
oring	-6904
▁freedom	-6905
▁joins	-6906
▁delayed	-6907
▁poppies	-6908
▁encouragement	-6909
▁covering	-6910
▁fishy	-6911
▁noodles	-6912
▁backpacks	-6913
▁toward	-6914
▁scraped	-6915
▁benches	-6916
▁purpose	-6917
binky	-6918
▁correct	-6919
▁lipstick	-6920
▁permitted	-6921
▁mosquitoes	-6922
bir	-6923
try	-6924
▁potion	-6925
▁twinkled	-6926
▁languages	-6927
▁cheers	-6928
▁desper	-6929
▁orders	-6930
▁risks	-6931
▁adults	-6932
freddy	-6933
▁faded	-6934
lucky	-6935
▁hiss	-6936
▁wounds	-6937
'."	-6938
orter	-6939
mallow	-6940
▁hoo	-6941
▁creams	-6942
▁annoyed	-6943
▁birdhouse	-6944
▁goo	-6945
isions	-6946
kiki	-6947
▁sniffing	-6948
lot	-6949
▁unwra	-6950
▁scient	-6951
▁nodding	-6952
▁opinions	-6953
▁puck	-6954
▁files	-6955
▁floats	-6956
▁sneezes	-6957
goodnight	-6958
▁handsome	-6959
ee	-6960
opes	-6961
▁flown	-6962
▁marshmallow	-6963
▁jacky	-6964
▁smelling	-6965
▁scientist	-6966
dr	-6967
milly	-6968
▁pand	-6969
amaged	-6970
▁burnt	-6971
tock	-6972
▁scamp	-6973
▁drifted	-6974
spl	-6975
▁height	-6976
▁tearing	-6977
▁pandas	-6978
▁damaged	-6979
▁instruments	-6980
▁eddie	-6981
▁squaw	-6982
▁pleaded	-6983
▁brushing	-6984
▁bothering	-6985
▁meg	-6986
birdy	-6987
▁pound	-6988
▁ease	-6989
kim	-6990
▁coc	-6991
▁seller	-6992
▁fiona	-6993
▁wasting	-6994
▁handing	-6995
▁stomp	-6996
▁destroying	-6997
▁results	-6998
erate	-6999
▁dreamt	-7000
two	-7001
ammy	-7002
buzzy	-7003
▁postman	-7004
inst	-7005
▁explains	-7006
val	-7007
ousy	-7008
▁robin	-7009
▁certain	-7010
▁characters	-7011
dan	-7012
kate	-7013
▁swirl	-7014
▁sweaty	-7015
▁engines	-7016
▁business	-7017
match	-7018
prints	-7019
▁onward	-7020
▁talents	-7021
▁bravest	-7022
▁sternly	-7023
▁reminding	-7024
▁scares	-7025
oy	-7026
rup	-7027
pandy	-7028
unched	-7029
▁apologised	-7030
order	-7031
▁minds	-7032
▁snuck	-7033
▁bitten	-7034
▁singers	-7035
▁switched	-7036
▁tilted	-7037
▁decisions	-7038
▁gary	-7039
▁behavior	-7040
attered	-7041
ition	-7042
▁blinky	-7043
ruby	-7044
▁spy	-7045
▁insp	-7046
▁faith	-7047
▁squeaked	-7048
▁grandparents	-7049
▁peeled	-7050
va	-7051
▁yumm	-7052
too	-7053
wake	-7054
▁purrs	-7055
▁sadie	-7056
vy	-7057
▁smashed	-7058
▁treated	-7059
▁rustling	-7060
▁displayed	-7061
line	-7062
▁neatly	-7063
▁novels	-7064
▁patches	-7065
▁planting	-7066
▁cal	-7067
▁grandson	-7068
gr	-7069
beh	-7070
▁nasty	-7071
▁cracks	-7072
▁shines	-7073
▁instantly	-7074
▁yelped	-7075
▁bellies	-7076
▁coloring	-7077
veral	-7078
▁failed	-7079
▁serving	-7080
use	-7081
clara	-7082
▁gap	-7083
▁zooms	-7084
▁tippy	-7085
▁maddie	-7086
▁breathing	-7087
▁una	-7088
▁combed	-7089
▁robbers	-7090
behind	-7091
▁throughout	-7092
iam	-7093
instead	-7094
▁congratul	-7095
▁waterfall	-7096
▁address	-7097
▁sweaters	-7098
▁antic	-7099
▁munch	-7100
▁wider	-7101
▁several	-7102
▁echoed	-7103
▁doorway	-7104
▁mindy	-7105
▁amelia	-7106
▁newspapers	-7107
▁diso	-7108
▁edges	-7109
des	-7110
▁inj	-7111
▁zippy	-7112
▁auntie	-7113
angle	-7114
▁magnif	-7115
▁unpacking	-7116
▁swap	-7117
▁warri	-7118
▁viv	-7119
▁taped	-7120
▁samantha	-7121
▁occ	-7122
▁flaps	-7123
▁scolds	-7124
imply	-7125
▁action	-7126
▁crawls	-7127
▁curl	-7128
▁gobbled	-7129
bably	-7130
▁probably	-7131
▁trusting	-7132
etho	-7133
▁backs	-7134
▁stetho	-7135
▁shinier	-7136
▁encount	-7137
▁eliz	-7138
mel	-7139
▁plucked	-7140
▁connected	-7141
▁plot	-7142
▁quieter	-7143
▁except	-7144
oni	-7145
▁gesture	-7146
nice	-7147
▁mousy	-7148
▁simply	-7149
▁student	-7150
▁doorbell	-7151
ssss	-7152
▁mina	-7153
▁goats	-7154
▁whistles	-7155
jul	-7156
▁cares	-7157
▁rescuing	-7158
▁rows	-7159
iel	-7160
▁mood	-7161
▁cottage	-7162
▁snaps	-7163
▁astronauts	-7164
vant	-7165
▁shorter	-7166
▁swo	-7167
▁pills	-7168
▁stan	-7169
shadow	-7170
▁swollen	-7171
▁ria	-7172
▁joyful	-7173
▁bothered	-7174
▁proper	-7175
▁otherwise	-7176
▁stethoscope	-7177
ndred	-7178
water	-7179
▁ruth	-7180
▁runner	-7181
cess	-7182
▁causing	-7183
▁prayers	-7184
▁hundred	-7185
maria	-7186
▁leapt	-7187
▁dresser	-7188
▁sou	-7189
▁cowboy	-7190
▁shelly	-7191
▁locks	-7192
bro	-7193
▁beaver	-7194
len	-7195
▁target	-7196
anne	-7197
mates	-7198
ibi	-7199
rious	-7200
▁dears	-7201
▁waddled	-7202
▁stepping	-7203
▁bud	-7204
▁teachers	-7205
▁flips	-7206
▁lowered	-7207
▁envelopes	-7208
aunt	-7209
▁prick	-7210
▁inches	-7211
▁playd	-7212
▁anticip	-7213
▁disc	-7214
someone	-7215
▁cons	-7216
▁caw	-7217
unity	-7218
▁knocking	-7219
▁gerry	-7220
▁floors	-7221
▁efforts	-7222
▁trot	-7223
▁uniforms	-7224
▁aware	-7225
▁footprints	-7226
▁germs	-7227
▁cotton	-7228
▁nearly	-7229
▁whimp	-7230
sol	-7231
▁slapping	-7232
▁appreciation	-7233
oosh	-7234
▁glitt	-7235
▁collap	-7236
▁lapt	-7237
▁charge	-7238
▁checks	-7239
llas	-7240
penny	-7241
▁necks	-7242
off	-7243
▁statues	-7244
sandy	-7245
▁plug	-7246
▁wrigg	-7247
▁ghosts	-7248
▁fluttering	-7249
find	-7250
slow	-7251
▁stamped	-7252
▁finishing	-7253
▁umbrellas	-7254
▁hunters	-7255
▁sandcastles	-7256
ngers	-7257
▁shrank	-7258
▁eva	-7259
iscuit	-7260
▁honesty	-7261
▁adds	-7262
▁stroll	-7263
▁chocolates	-7264
▁passengers	-7265
.'"	-7266
▁dina	-7267
▁dodged	-7268
▁matey	-7269
▁sofia	-7270
▁aprons	-7271
▁jonny	-7272
▁weeds	-7273
▁friendships	-7274
hop	-7275
▁deed	-7276
▁aisle	-7277
▁sets	-7278
▁nurses	-7279
▁demanding	-7280
coco	-7281
▁scratching	-7282
arrr	-7283
▁meows	-7284
▁ricky	-7285
▁minding	-7286
▁discussing	-7287
issa	-7288
▁flop	-7289
▁snuggle	-7290
▁cari	-7291
▁grandfather	-7292
grow	-7293
▁awoke	-7294
▁posit	-7295
▁wooly	-7296
▁killed	-7297
▁closing	-7298
▁driveway	-7299
ka	-7300
danger	-7301
▁becomes	-7302
▁toolbox	-7303
▁bon	-7304
▁attack	-7305
▁laptop	-7306
lied	-7307
ening	-7308
▁bubba	-7309
▁springing	-7310
▁traveling	-7311
▁biscuit	-7312
zara	-7313
▁rays	-7314
▁maisy	-7315
arrow	-7316
splash	-7317
▁sprays	-7318
▁bounces	-7319
▁disobey	-7320
▁scampered	-7321
▁rita	-7322
▁supplied	-7323
▁burns	-7324
▁tin	-7325
▁models	-7326
▁suggestion	-7327
▁erase	-7328
▁megan	-7329
▁anticipation	-7330
▁foxes	-7331
▁humming	-7332
▁invites	-7333
▁belongings	-7334
▁twists	-7335
▁massages	-7336
▁cafe	-7337
finn	-7338
▁aim	-7339
▁forgives	-7340
hoppy	-7341
▁cond	-7342
▁newfound	-7343
▁responded	-7344
does	-7345
olive	-7346
speedy	-7347
▁louise	-7348
▁expecting	-7349
sun	-7350
▁mommies	-7351
▁melo	-7352
▁cheated	-7353
enty	-7354
▁ken	-7355
▁tests	-7356
▁battle	-7357
▁jets	-7358
trust	-7359
▁haird	-7360
emp	-7361
▁carries	-7362
▁invitations	-7363
▁bibi	-7364
▁refreshing	-7365
▁duckling	-7366
▁presented	-7367
lotte	-7368
▁grump	-7369
▁patty	-7370
▁rowed	-7371
▁designing	-7372
onse	-7373
▁final	-7374
▁hopper	-7375
▁marshmallows	-7376
▁clicked	-7377
belle	-7378
mouse	-7379
▁mugs	-7380
▁hallow	-7381
sad	-7382
▁halloween	-7383
▁oppos	-7384
prom	-7385
▁defe	-7386
▁elle	-7387
▁drown	-7388
▁aliens	-7389
▁convin	-7390
▁picnics	-7391
ien	-7392
mon	-7393
▁tricycle	-7394
▁ding	-7395
▁biggy	-7396
▁scoops	-7397
brrr	-7398
inted	-7399
▁craft	-7400
▁travels	-7401
▁questioned	-7402
ts	-7403
pip	-7404
uel	-7405
▁strips	-7406
▁fights	-7407
▁yawning	-7408
▁coach	-7409
covered	-7410
boom	-7411
ashing	-7412
▁jax	-7413
becca	-7414
▁raising	-7415
▁opposite	-7416
▁cheat	-7417
▁rout	-7418
worm	-7419
▁afford	-7420
▁sprout	-7421
▁weapons	-7422
▁encountered	-7423
rie	-7424
▁decl	-7425
▁calmly	-7426
▁frankie	-7427
▁consid	-7428
▁nutty	-7429
▁upside	-7430
▁sincere	-7431
▁crystals	-7432
appy	-7433
▁vivi	-7434
▁kevin	-7435
▁cupcakes	-7436
tree	-7437
▁fel	-7438
▁flashed	-7439
over	-7440
▁twenty	-7441
▁winners	-7442
▁realizes	-7443
▁stuffing	-7444
cie	-7445
omb	-7446
▁defin	-7447
▁sacks	-7448
gigi	-7449
▁luc	-7450
▁whales	-7451
byes	-7452
▁buckled	-7453
▁swallow	-7454
▁kelly	-7455
▁satur	-7456
promise	-7457
▁unable	-7458
▁diamonds	-7459
',	-7460
▁bless	-7461
▁puffy	-7462
▁messes	-7463
▁packages	-7464
itely	-7465
▁attemp	-7466
▁vio	-7467
▁phil	-7468
▁goodbyes	-7469
oe	-7470
▁convers	-7471
▁returning	-7472
quet	-7473
▁drift	-7474
emies	-7475
▁softy	-7476
▁enemies	-7477
▁scrub	-7478
▁yummiest	-7479
▁traps	-7480
▁freezing	-7481
▁admiration	-7482
▁fain	-7483
tilly	-7484
▁cosy	-7485
▁clip	-7486
▁beetles	-7487
▁sadder	-7488
▁brightest	-7489
▁nancy	-7490
▁ribbit	-7491
▁response	-7492
bage	-7493
▁katy	-7494
broken	-7495
only	-7496
▁elsa	-7497
▁garbage	-7498
stalk	-7499
▁reapp	-7500
▁opport	-7501
▁honking	-7502
▁dragonfly	-7503
▁whispering	-7504
rain	-7505
▁odd	-7506
igger	-7507
▁bride	-7508
▁prevented	-7509
▁stretches	-7510
▁awful	-7511
▁spices	-7512
▁weighs	-7513
▁examining	-7514
▁caps	-7515
▁maddy	-7516
▁journeys	-7517
▁automobiles	-7518
back	-7519
▁beanstalk	-7520
alth	-7521
shap	-7522
▁born	-7523
surrender	-7524
▁reassured	-7525
cted	-7526
near	-7527
nina	-7528
▁fant	-7529
▁jumpy	-7530
▁stall	-7531
▁saturday	-7532
▁sens	-7533
▁argument	-7534
▁offering	-7535
▁visitors	-7536
ici	-7537
▁nat	-7538
▁bingo	-7539
▁definitely	-7540
▁coral	-7541
▁playdate	-7542
,'	-7543
▁washes	-7544
▁travelling	-7545
ooh	-7546
▁wealth	-7547
▁bomb	-7548
▁occas	-7549
▁wiser	-7550
▁customer	-7551
got	-7552
▁bou	-7553
▁inspired	-7554
▁hairdress	-7555
▁decoration	-7556
ivia	-7557
action	-7558
▁bouquet	-7559
▁tumbled	-7560
▁campfire	-7561
liz	-7562
▁quacky	-7563
▁increasing	-7564
▁zack	-7565
ugging	-7566
▁dotty	-7567
▁loudest	-7568
▁welcoming	-7569
repe	-7570
carl	-7571
iron	-7572
▁crocodiles	-7573
▁type	-7574
▁groan	-7575
▁daniel	-7576
▁parted	-7577
▁prizes	-7578
piece	-7579
repeat	-7580
should	-7581
▁flappy	-7582
▁cowboys	-7583
frank	-7584
▁form	-7585
▁vicky	-7586
▁declared	-7587
▁badger	-7588
▁correctly	-7589
▁beaks	-7590
athan	-7591
▁elsie	-7592
▁cleared	-7593
▁comforting	-7594
▁jud	-7595
▁bubbly	-7596
▁customers	-7597
▁fantastic	-7598
▁nuzzled	-7599
▁rewards	-7600
▁exch	-7601
▁soapy	-7602
▁warmly	-7603
▁achoo	-7604
▁pipes	-7605
▁obeyed	-7606
▁scurry	-7607
▁thanking	-7608
▁sirens	-7609
katie	-7610
▁rely	-7611
shaped	-7612
▁connect	-7613
▁recorder	-7614
▁fluff	-7615
▁insisting	-7616
oving	-7617
▁trigger	-7618
▁spoiling	-7619
▁supporting	-7620
▁bends	-7621
▁wil	-7622
▁owns	-7623
▁poses	-7624
friends	-7625
▁hairdresser	-7626
sque	-7627
▁moons	-7628
▁cleans	-7629
▁shares	-7630
▁storms	-7631
▁beaming	-7632
▁troubles	-7633
▁surrendered	-7634
war	-7635
finny	-7636
rench	-7637
▁soot	-7638
▁wrinkled	-7639
▁signing	-7640
▁experien	-7641
iri	-7642
▁thump	-7643
▁miller	-7644
daughter	-7645
▁dollar	-7646
▁chopped	-7647
▁hooks	-7648
▁active	-7649
▁enjoyable	-7650
mat	-7651
▁loc	-7652
hopper	-7653
▁streamers	-7654
▁self	-7655
▁environ	-7656
afterwards	-7657
elope	-7658
▁jason	-7659
▁tickles	-7660
udged	-7661
screen	-7662
▁becky	-7663
▁shorts	-7664
▁tweety	-7665
▁examp	-7666
▁choosing	-7667
▁grat	-7668
▁shooed	-7669
▁applauding	-7670
▁environment	-7671
annah	-7672
▁warrior	-7673
ats	-7674
erk	-7675
▁scent	-7676
▁bruises	-7677
▁ting	-7678
▁du	-7679
▁crust	-7680
▁hisses	-7681
▁pilots	-7682
▁steering	-7683
▁disappoint	-7684
▁roger	-7685
▁plugged	-7686
ails	-7687
▁terry	-7688
▁visits	-7689
▁dangers	-7690
▁exercises	-7691
honey	-7692
anie	-7693
▁squished	-7694
▁gratitude	-7695
▁freddie	-7696
▁weighing	-7697
ering	-7698
munk	-7699
tony	-7700
▁moppy	-7701
▁providing	-7702
ga	-7703
▁nights	-7704
▁chipmunk	-7705
▁convinced	-7706
▁responsib	-7707
▁sunscreen	-7708
vi	-7709
lena	-7710
▁activity	-7711
▁bond	-7712
▁brains	-7713
▁nearest	-7714
▁youngest	-7715
bbling	-7716
▁rewarding	-7717
▁coughed	-7718
▁arranged	-7719
▁snug	-7720
din	-7721
mira	-7722
▁exploded	-7723
▁tops	-7724
▁offic	-7725
▁forgiveness	-7726
ooky	-7727
▁annoying	-7728
hmm	-7729
ilities	-7730
▁tapping	-7731
zig	-7732
▁scram	-7733
▁jumper	-7734
▁laces	-7735
▁rails	-7736
pit	-7737
ahoy	-7738
▁threads	-7739
▁appreciated	-7740
▁heartbroken	-7741
▁gus	-7742
boards	-7743
▁emerged	-7744
▁congratulated	-7745
▁drip	-7746
▁clerk	-7747
▁manager	-7748
▁dial	-7749
▁erasers	-7750
▁blond	-7751
abigail	-7752
▁messed	-7753
▁example	-7754
▁kinder	-7755
▁ill	-7756
▁cheating	-7757
▁bathed	-7758
▁guarding	-7759
▁masterpiece	-7760
▁lina	-7761
▁beast	-7762
dav	-7763
sse	-7764
eat	-7765
etah	-7766
▁sly	-7767
▁eric	-7768
▁otters	-7769
▁bluebird	-7770
▁fet	-7771
▁common	-7772
▁expert	-7773
▁cheetah	-7774
▁finishes	-7775
aa	-7776
mbers	-7777
▁digs	-7778
▁members	-7779
▁nibbled	-7780
▁trotted	-7781
▁generosity	-7782
▁tips	-7783
▁chews	-7784
▁particularly	-7785
sha	-7786
▁rips	-7787
▁eliza	-7788
inda	-7789
david	-7790
▁jugg	-7791
▁william	-7792
▁observing	-7793
used	-7794
▁cici	-7795
▁gill	-7796
▁ashley	-7797
▁earned	-7798
▁fishes	-7799
▁mischie	-7800
▁cheaper	-7801
▁experienced	-7802
▁cages	-7803
▁mischievous	-7804
▁melody	-7805
▁stores	-7806
ordinary	-7807
▁meowing	-7808
▁charlotte	-7809
wor	-7810
flies	-7811
▁strum	-7812
▁foreshadow	-7813
▁mattered	-7814
lesc	-7815
▁chilly	-7816
▁telesc	-7817
▁limp	-7818
▁sleeps	-7819
aye	-7820
▁wolves	-7821
▁breaths	-7822
ative	-7823
▁mats	-7824
▁gasps	-7825
▁scrambled	-7826
▁hatch	-7827
▁farmers	-7828
▁rumbling	-7829
snowy	-7830
etchup	-7831
▁satisf	-7832
▁accomplished	-7833
ris	-7834
▁court	-7835
▁tammy	-7836
outside	-7837
▁angrily	-7838
▁smartest	-7839
▁telescope	-7840
▁moat	-7841
▁gardens	-7842
hole	-7843
▁trans	-7844
▁whined	-7845
▁elect	-7846
ya	-7847
▁vests	-7848
▁medals	-7849
▁forests	-7850
▁collapsed	-7851
never	-7852
▁syrup	-7853
▁snapping	-7854
▁discoveries	-7855
▁experiences	-7856
▁mae	-7857
adabra	-7858
▁styles	-7859
▁conqu	-7860
▁faint	-7861
▁types	-7862
▁meaning	-7863
stand	-7864
▁hardest	-7865
▁toothbrush	-7866
baa	-7867
▁olivia	-7868
▁sooner	-7869
▁spears	-7870
▁movements	-7871
▁expression	-7872
acles	-7873
▁surv	-7874
▁affect	-7875
▁passes	-7876
▁spooky	-7877
▁ketchup	-7878
▁extraordinary	-7879
▁horri	-7880
▁unfair	-7881
▁zog	-7882
▁peaco	-7883
cadabra	-7884
▁scores	-7885
people	-7886
▁attitude	-7887
ently	-7888
▁thie	-7889
▁kneeling	-7890
▁grasshopper	-7891
▁janey	-7892
▁marking	-7893
▁prickly	-7894
frog	-7895
idey	-7896
▁gia	-7897
▁hood	-7898
▁behaviour	-7899
▁amber	-7900
▁glittering	-7901
▁habit	-7902
▁woolly	-7903
▁afar	-7904
▁pokes	-7905
▁comets	-7906
▁amanda	-7907
▁shrunk	-7908
▁scri	-7909
▁thicker	-7910
▁classmates	-7911
spr	-7912
▁brian	-7913
▁thieves	-7914
▁squeezes	-7915
▁slithered	-7916
▁icky	-7917
▁violet	-7918
▁skirts	-7919
▁zigzags	-7920
▁riri	-7921
▁sasha	-7922
▁tyler	-7923
▁announced	-7924
ror	-7925
mean	-7926
▁topp	-7927
▁cally	-7928
▁gilly	-7929
its	-7930
▁costs	-7931
▁trading	-7932
ril	-7933
▁tidying	-7934
▁watermel	-7935
▁acts	-7936
▁woodcut	-7937
amma	-7938
▁sav	-7939
▁thumbs	-7940
▁peacock	-7941
▁boards	-7942
▁cocoon	-7943
▁raking	-7944
▁servant	-7945
both	-7946
▁foam	-7947
▁electric	-7948
▁kangaroos	-7949
▁explaining	-7950
pinky	-7951
▁flora	-7952
▁lunchtime	-7953
▁rhino	-7954
storm	-7955
▁tidied	-7956
meanwhile	-7957
▁concer	-7958
▁desserts	-7959
▁disagreeing	-7960
▁hamm	-7961
▁rufus	-7962
▁seeking	-7963
poison	-7964
▁chill	-7965
▁spilling	-7966
▁transform	-7967
▁oink	-7968
pap	-7969
rick	-7970
anced	-7971
▁snar	-7972
▁felix	-7973
▁buster	-7974
▁discouraged	-7975
▁dev	-7976
▁gulp	-7977
▁actor	-7978
▁heaven	-7979
▁messages	-7980
▁whee	-7981
▁beating	-7982
▁windowsill	-7983
▁gabby	-7984
▁ky	-7985
ching	-7986
▁rebecca	-7987
▁positive	-7988
▁pressing	-7989
zero	-7990
▁leans	-7991
▁hissing	-7992
▁woodcutter	-7993
▁cloths	-7994
▁compete	-7995
▁winding	-7996
▁flashing	-7997
▁watermelon	-7998
▁jing	-7999
▁teap	-8000
▁foggy	-8001
▁forts	-8002
bluey	-8003
▁starry	-8004
▁dripped	-8005
▁flicker	-8006
climb	-8007
jamie	-8008
▁teapot	-8009
▁landing	-8010
ggies	-8011
hannah	-8012
▁glimmering	-8013
woo	-8014
▁chin	-8015
bounce	-8016
▁trusts	-8017
▁veggies	-8018
▁granddaughter	-8019
▁cops	-8020
ala	-8021
▁bert	-8022
▁tempted	-8023
▁dock	-8024
▁jenn	-8025
▁formed	-8026
▁shallow	-8027
lers	-8028
▁fade	-8029
▁rack	-8030
▁worst	-8031
nothing	-8032
▁gracie	-8033
▁scen	-8034
▁zips	-8035
▁officers	-8036
mad	-8037
three	-8038
▁cubs	-8039
creams	-8040
▁sleds	-8041
▁andrew	-8042
▁apology	-8043
whel	-8044
▁otto	-8045
▁situations	-8046
gre	-8047
▁shh	-8048
▁snip	-8049
▁conversation	-8050
▁pizzas	-8051
▁overwhel	-8052
steve	-8053
▁suns	-8054
▁tessa	-8055
▁inky	-8056
▁scurrying	-8057
▁structures	-8058
▁peggy	-8059
adam	-8060
sers	-8061
▁webs	-8062
▁flipp	-8063
▁nor	-8064
▁sce	-8065
▁barry	-8066
▁spidey	-8067
▁deserved	-8068
gar	-8069
▁maj	-8070
▁nora	-8071
▁mixie	-8072
▁opportunity	-8073
ended	-8074
fif	-8075
▁snorted	-8076
▁penelope	-8077
▁quacking	-8078
▁seagulls	-8079
▁differences	-8080
▁disappointment	-8081
▁ass	-8082
▁dep	-8083
▁exams	-8084
▁levers	-8085
▁approach	-8086
▁inchworm	-8087
▁caterpillars	-8088
deal	-8089
▁pose	-8090
acing	-8091
ssess	-8092
▁possess	-8093
▁cooperate	-8094
▁ly	-8095
▁binoc	-8096
▁sneaks	-8097
▁speaks	-8098
▁shortcut	-8099
▁answering	-8100
▁binocular	-8101
▁pepperoni	-8102
▁artwork	-8103
athy	-8104
ural	-8105
▁lim	-8106
▁scowl	-8107
▁slinky	-8108
▁surfed	-8109
suzy	-8110
▁ging	-8111
idence	-8112
▁bushy	-8113
▁amused	-8114
▁arrest	-8115
ulp	-8116
▁sculp	-8117
▁sipped	-8118
▁jean	-8119
▁reun	-8120
▁puppets	-8121
▁striking	-8122
▁unwrapped	-8123
▁repeats	-8124
▁applause	-8125
▁keyhole	-8126
▁checkout	-8127
▁paddling	-8128
▁visitor	-8129
▁stew	-8130
▁helen	-8131
sharing	-8132
▁croaked	-8133
▁attacked	-8134
▁ti	-8135
fifi	-8136
being	-8137
thomas	-8138
▁checking	-8139
▁heels	-8140
▁whoosh	-8141
▁beautifully	-8142
ta	-8143
▁poss	-8144
▁groaned	-8145
▁swimsuits	-8146
▁quizz	-8147
▁bobbie	-8148
▁nets	-8149
▁majest	-8150
▁matilda	-8151
ws	-8152
▁drying	-8153
▁cheerfully	-8154
▁groom	-8155
▁invent	-8156
ading	-8157
▁shrugs	-8158
▁waters	-8159
▁shyly	-8160
▁lump	-8161
▁honks	-8162
▁shoots	-8163
hny	-8164
▁sobbing	-8165
▁hangs	-8166
▁ratty	-8167
▁sprinkle	-8168
▁healthier	-8169
▁whimpered	-8170
wee	-8171
scar	-8172
elling	-8173
▁builder	-8174
esses	-8175
▁fixer	-8176
emy	-8177
saw	-8178
ending	-8179
▁fries	-8180
▁squinted	-8181
▁magnifying	-8182
▁guards	-8183
▁frustration	-8184
▁wig	-8185
▁bendy	-8186
▁nibble	-8187
▁fascinating	-8188
▁quizzes	-8189
▁sculpture	-8190
▁blamed	-8191
▁stretchy	-8192
▁shimmering	-8193
bed	-8194
mil	-8195
▁fris	-8196
▁owls	-8197
ouched	-8198
▁pleas	-8199
ahh	-8200
▁unless	-8201
▁numbered	-8202
▁mysteries	-8203
hew	-8204
▁facing	-8205
▁bowing	-8206
▁flowing	-8207
▁experiment	-8208
bless	-8209
▁raked	-8210
▁hunting	-8211
▁grumbled	-8212
▁ka	-8213
chloe	-8214
▁bonnie	-8215
▁melissa	-8216
▁petting	-8217
▁swaying	-8218
▁countries	-8219
anish	-8220
racted	-8221
▁snort	-8222
▁motorcy	-8223
▁ravi	-8224
rabbit	-8225
▁details	-8226
str	-8227
▁enemy	-8228
▁stacks	-8229
▁popping	-8230
▁textures	-8231
hor	-8232
imm	-8233
▁tablet	-8234
▁goodies	-8235
catch	-8236
▁aston	-8237
▁flock	-8238
▁mayor	-8239
▁tro	-8240
▁fans	-8241
▁maps	-8242
▁crops	-8243
▁knobs	-8244
▁marve	-8245
▁petal	-8246
▁wildflowers	-8247
▁property	-8248
abracadabra	-8249
▁local	-8250
▁halfway	-8251
▁binoculars	-8252
▁bubu	-8253
pepper	-8254
▁troll	-8255
▁peeped	-8256
▁angrier	-8257
▁drowned	-8258
▁johnson	-8259
want	-8260
▁moonlight	-8261
lizzy	-8262
▁niece	-8263
▁mindful	-8264
▁outfits	-8265
yield	-8266
▁cluck	-8267
▁wrench	-8268
▁guardian	-8269
amil	-8270
othy	-8271
▁weaker	-8272
▁crowded	-8273
make	-8274
▁endings	-8275
▁compliment	-8276
▁flashes	-8277
▁hesitation	-8278
bank	-8279
▁bas	-8280
▁boil	-8281
▁fond	-8282
▁carts	-8283
amiliar	-8284
▁ability	-8285
▁cracker	-8286
▁noticing	-8287
rey	-8288
getic	-8289
▁knit	-8290
▁haven	-8291
▁spaces	-8292
▁unfamiliar	-8293
wis	-8294
▁folds	-8295
▁pouch	-8296
▁glared	-8297
▁imaginations	-8298
▁responsibility	-8299
close	-8300
▁suck	-8301
▁dirtier	-8302
▁funn	-8303
▁laws	-8304
▁desks	-8305
playing	-8306
▁microw	-8307
care	-8308
ibly	-8309
tuna	-8310
▁hooves	-8311
▁member	-8312
▁microwave	-8313
▁disappearing	-8314
▁mila	-8315
▁steven	-8316
▁swapped	-8317
▁ostriches	-8318
nger	-8319
▁date	-8320
icking	-8321
▁writer	-8322
lyn	-8323
▁rebu	-8324
▁whine	-8325
▁doorstep	-8326
▁softened	-8327
▁phones	-8328
▁quacks	-8329
▁wiggles	-8330
▁listener	-8331
rachel	-8332
▁blushed	-8333
▁inter	-8334
▁flopsy	-8335
▁wan	-8336
▁rosa	-8337
▁palms	-8338
▁mailing	-8339
▁disaster	-8340
py	-8341
julie	-8342
venir	-8343
▁cris	-8344
▁carla	-8345
▁hippos	-8346
▁souvenir	-8347
▁snowflake	-8348
▁faye	-8349
▁jose	-8350
endant	-8351
▁paula	-8352
bubbles	-8353
▁confidence	-8354
▁overwhelmed	-8355
centr	-8356
▁timid	-8357
▁concentr	-8358
▁stirs	-8359
▁sis	-8360
▁riley	-8361
▁wanna	-8362
beth	-8363
▁tugging	-8364
▁bi	-8365
whose	-8366
asmine	-8367
▁injured	-8368
▁untangle	-8369
▁satisfaction	-8370
▁jody	-8371
▁prank	-8372
▁crabby	-8373
▁cupcake	-8374
▁lizards	-8375
▁spi	-8376
▁grad	-8377
whenever	-8378
gina	-8379
▁clut	-8380
▁horsie	-8381
▁kissing	-8382
▁motorcycles	-8383
sadly	-8384
▁lava	-8385
▁pinchy	-8386
▁annabelle	-8387
love	-8388
▁swir	-8389
▁alley	-8390
▁skies	-8391
▁bending	-8392
▁mac	-8393
▁trucky	-8394
ju	-8395
jess	-8396
▁rods	-8397
▁creak	-8398
▁disagre	-8399
▁attaching	-8400
cla	-8401
wiggly	-8402
je	-8403
tell	-8404
▁rags	-8405
▁yuck	-8406
▁pecks	-8407
▁rinse	-8408
▁torto	-8409
▁stains	-8410
▁wriggled	-8411
▁desperate	-8412
▁reversing	-8413
mind	-8414
▁cutter	-8415
▁thankfully	-8416
lia	-8417
abby	-8418
ware	-8419
▁heli	-8420
▁april	-8421
▁shave	-8422
▁bumping	-8423
▁fireflies	-8424
▁sandpit	-8425
▁exploration	-8426
▁liam	-8427
▁gooey	-8428
▁spiky	-8429
cessary	-8430
▁spinny	-8431
▁chatted	-8432
▁clearly	-8433
ulf	-8434
▁lever	-8435
▁tunes	-8436
▁ginger	-8437
▁miracle	-8438
▁concerned	-8439
edic	-8440
lish	-8441
▁facts	-8442
▁nibbles	-8443
▁tortoise	-8444
▁repairing	-8445
bi	-8446
rock	-8447
belie	-8448
▁fooled	-8449
mail	-8450
share	-8451
▁glows	-8452
▁burger	-8453
▁certainly	-8454
▁realizing	-8455
eww	-8456
▁circ	-8457
▁salon	-8458
▁compan	-8459
tin	-8460
▁robe	-8461
▁smelt	-8462
▁detect	-8463
▁fetched	-8464
▁sometime	-8465
ign	-8466
▁cammy	-8467
▁oldest	-8468
▁challenges	-8469
▁prod	-8470
▁blonde	-8471
▁joyfully	-8472
rosie	-8473
▁embra	-8474
▁warmed	-8475
▁natural	-8476
▁unlocking	-8477
lor	-8478
elle	-8479
papa	-8480
▁bound	-8481
▁squawk	-8482
▁differently	-8483
lls	-8484
oray	-8485
apple	-8486
▁conquered	-8487
▁riverbank	-8488
▁alligators	-8489
isn	-8490
▁hates	-8491
▁greeny	-8492
▁desperately	-8493
con	-8494
lest	-8495
▁sends	-8496
▁swirls	-8497
▁realise	-8498
▁forgiven	-8499
▁astonished	-8500
rier	-8501
▁banging	-8502
▁munched	-8503
▁wiggling	-8504
▁sensation	-8505
▁fist	-8506
▁clips	-8507
▁vinegar	-8508
▁brakes	-8509
▁halves	-8510
▁stings	-8511
▁swayed	-8512
▁lectures	-8513
▁toppings	-8514
li	-8515
brant	-8516
▁racer	-8517
▁crushed	-8518
▁survive	-8519
▁bubbling	-8520
ula	-8521
▁tents	-8522
keepers	-8523
▁pearls	-8524
▁vibrant	-8525
ni	-8526
exit	-8527
icate	-8528
▁rubbish	-8529
aly	-8530
lau	-8531
dino	-8532
phew	-8533
icious	-8534
something	-8535
▁gradually	-8536
ths	-8537
stup	-8538
toys	-8539
stupid	-8540
▁passenger	-8541
ava	-8542
▁aid	-8543
since	-8544
▁poop	-8545
▁croak	-8546
▁loyalty	-8547
▁pounced	-8548
ps	-8549
▁twel	-8550
doctor	-8551
mie	-8552
each	-8553
▁mooed	-8554
▁scene	-8555
▁glided	-8556
▁sundays	-8557
▁crickets	-8558
pass	-8559
slowly	-8560
zigzag	-8561
▁charm	-8562
▁calmer	-8563
▁copied	-8564
▁coolest	-8565
▁intently	-8566
many	-8567
clock	-8568
inkle	-8569
momma	-8570
▁liza	-8571
▁judges	-8572
smelling	-8573
▁computers	-8574
▁bats	-8575
▁parks	-8576
▁quilt	-8577
▁woken	-8578
inny	-8579
▁gall	-8580
▁twelve	-8581
▁cousins	-8582
uno	-8583
▁hips	-8584
isible	-8585
▁capes	-8586
▁pounds	-8587
▁arrives	-8588
mitt	-8589
▁guesses	-8590
▁speaker	-8591
▁reunited	-8592
▁invisible	-8593
▁successfully	-8594
wally	-8595
▁commun	-8596
▁goodness	-8597
▁electricity	-8598
pan	-8599
four	-8600
urity	-8601
▁winds	-8602
▁chatting	-8603
▁stacking	-8604
▁fortunately	-8605
▁''	-8606
sleep	-8607
sweet	-8608
▁janet	-8609
▁surely	-8610
robby	-8611
▁dumb	-8612
mittens	-8613
working	-8614
▁companion	-8615
▁reappeared	-8616
value	-8617
▁soda	-8618
▁level	-8619
▁martin	-8620
▁popsic	-8621
▁luckiest	-8622
▁cd	-8623
▁ank	-8624
▁dou	-8625
▁hoses	-8626
▁sells	-8627
▁disagreement	-8628
say	-8629
▁stun	-8630
▁gates	-8631
▁occasion	-8632
▁stomachs	-8633
▁awhile	-8634
▁disobeyed	-8635
▁separating	-8636
▁seashe	-8637
▁stinky	-8638
▁furious	-8639
▁doves	-8640
▁rider	-8641
▁tongues	-8642
▁abo	-8643
claire	-8644
▁gruff	-8645
▁mamma	-8646
▁intelligence	-8647
ites	-8648
▁cuc	-8649
chief	-8650
▁mona	-8651
aker	-8652
uctor	-8653
▁bund	-8654
colored	-8655
▁joanna	-8656
sey	-8657
dare	-8658
iley	-8659
▁creep	-8660
▁aboard	-8661
▁chicks	-8662
▁guitars	-8663
▁security	-8664
▁persistence	-8665
▁caution	-8666
▁rebuild	-8667
▁revealing	-8668
horse	-8669
▁duke	-8670
▁fuss	-8671
▁winky	-8672
▁jennie	-8673
▁coby	-8674
▁kyle	-8675
▁learner	-8676
▁squashes	-8677
▁underwater	-8678
win	-8679
zoe	-8680
aids	-8681
hope	-8682
▁mir	-8683
▁leah	-8684
▁globe	-8685
▁blooms	-8686
▁whines	-8687
solute	-8688
▁carly	-8689
▁tickling	-8690
oma	-8691
▁crouched	-8692
▁routine	-8693
▁hundreds	-8694
▁meanwhile	-8695
▁appearance	-8696
▁helicopters	-8697
!'.	-8698
ifer	-8699
▁prog	-8700
▁cooks	-8701
▁socky	-8702
▁hatched	-8703
▁leaking	-8704
▁strokes	-8705
fived	-8706
▁ripp	-8707
▁tant	-8708
▁admit	-8709
▁centre	-8710
▁deeply	-8711
▁allowing	-8712
▁lighting	-8713
▁zookeepers	-8714
fty	-8715
milo	-8716
▁mold	-8717
▁taps	-8718
▁blame	-8719
▁oscar	-8720
▁painful	-8721
▁defeated	-8722
ili	-8723
anda	-8724
shoo	-8725
▁bol	-8726
▁tempting	-8727
▁shattered	-8728
ggles	-8729
▁peeks	-8730
▁crusty	-8731
▁throne	-8732
▁burgers	-8733
▁chopping	-8734
▁squirted	-8735
chant	-8736
start	-8737
▁sweetly	-8738
▁plus	-8739
▁whir	-8740
chicky	-8741
▁sweeter	-8742
▁exchange	-8743
kayla	-8744
▁misty	-8745
josh	-8746
guard	-8747
▁rinsed	-8748
▁builders	-8749
believe	-8750
▁buckles	-8751
▁glittered	-8752
rum	-8753
cker	-8754
▁melts	-8755
▁goggles	-8756
▁energetic	-8757
lost	-8758
▁plat	-8759
▁tours	-8760
▁waded	-8761
▁chooses	-8762
▁tantrum	-8763
▁sniffled	-8764
▁competing	-8765
▁container	-8766
▁protection	-8767
shes	-8768
▁lull	-8769
vering	-8770
▁cooed	-8771
▁courageous	-8772
▁dash	-8773
▁rara	-8774
▁aller	-8775
▁fizzy	-8776
▁larger	-8777
▁undone	-8778
▁attempts	-8779
▁seriously	-8780
bly	-8781
scot	-8782
▁dedic	-8783
▁hummed	-8784
▁tossing	-8785
star	-8786
▁bold	-8787
▁breezy	-8788
▁muster	-8789
eded	-8790
▁tot	-8791
stret	-8792
▁racers	-8793
solutely	-8794
▁patients	-8795
?!	-8796
toot	-8797
▁aloud	-8798
▁meadows	-8799
▁whether	-8800
▁deserves	-8801
▁chom	-8802
▁clau	-8803
▁marvel	-8804
hide	-8805
▁meets	-8806
▁smoking	-8807
▁wrapper	-8808
▁improving	-8809
▁hank	-8810
▁belle	-8811
▁reddy	-8812
▁patrick	-8813
▁def	-8814
▁booth	-8815
▁nicest	-8816
▁chatter	-8817
▁imaginary	-8818
▁incredibly	-8819
!'"	-8820
▁ms	-8821
bling	-8822
▁rect	-8823
▁pairs	-8824
▁holidays	-8825
"!	-8826
▁nate	-8827
▁obst	-8828
▁pebby	-8829
▁blades	-8830
▁carrie	-8831
▁cruel	-8832
▁lamps	-8833
▁risky	-8834
squeaky	-8835
▁stanley	-8836
▁strolled	-8837
los	-8838
▁army	-8839
▁peak	-8840
▁slot	-8841
▁peels	-8842
▁tanks	-8843
▁sandra	-8844
ssssssss	-8845
sky	-8846
meal	-8847
oned	-8848
▁alan	-8849
school	-8850
▁winks	-8851
jacob	-8852
▁bruce	-8853
▁nearer	-8854
▁overhead	-8855
▁pedaling	-8856
move	-8857
froggy	-8858
▁ernie	-8859
▁messier	-8860
▁horrible	-8861
▁munching	-8862
▁transformed	-8863
▁fail	-8864
▁inju	-8865
▁stur	-8866
▁swimmy	-8867
▁trusty	-8868
▁panicking	-8869
illas	-8870
▁lulla	-8871
▁cherish	-8872
▁jasmine	-8873
▁treas	-8874
▁narrow	-8875
▁boiling	-8876
cloth	-8877
▁dryer	-8878
twinkle	-8879
▁puffed	-8880
▁softest	-8881
thew	-8882
rocky	-8883
shirt	-8884
▁host	-8885
▁curre	-8886
▁dives	-8887
▁gallop	-8888
hand	-8889
enjoy	-8890
▁joan	-8891
fusion	-8892
▁offers	-8893
▁possib	-8894
▁confusion	-8895
tie	-8896
▁mustn	-8897
▁sparrow	-8898
▁zippers	-8899
▁marveled	-8900
▁uncovered	-8901
▁gratefully	-8902
▁scre	-8903
uction	-8904
▁cooled	-8905
▁elders	-8906
▁nations	-8907
▁oatmeal	-8908
▁adventurer	-8909
▁didi	-8910
▁dips	-8911
▁hint	-8912
▁bloss	-8913
▁shaky	-8914
▁chains	-8915
▁mustered	-8916
girl	-8917
vince	-8918
▁ankle	-8919
▁rotted	-8920
▁glanced	-8921
▁heights	-8922
▁coughing	-8923
everything	-8924
▁treasured	-8925
▁johny	-8926
parable	-8927
ets	-8928
pick	-8929
losure	-8930
▁clubs	-8931
▁flyer	-8932
▁royal	-8933
▁heavily	-8934
▁sinking	-8935
▁ordering	-8936
▁cupboards	-8937
▁enclosure	-8938
yl	-8939
▁spare	-8940
▁sleigh	-8941
▁inseparable	-8942
idi	-8943
▁lush	-8944
▁libby	-8945
▁riddle	-8946
▁section	-8947
▁borrowing	-8948
lock	-8949
oured	-8950
▁canv	-8951
▁tempt	-8952
▁dashed	-8953
▁necessary	-8954
mix	-8955
shop	-8956
▁dilly	-8957
▁mushy	-8958
▁devast	-8959
▁hare	-8960
dia	-8961
ders	-8962
▁sax	-8963
▁unst	-8964
▁lucas	-8965
▁praise	-8966
▁scener	-8967
▁allergic	-8968
▁glittery	-8969
▁completing	-8970
▁pail	-8971
▁rowing	-8972
▁scratchy	-8973
▁raincoats	-8974
oxy	-8975
▁scenery	-8976
▁suggests	-8977
ically	-8978
▁marley	-8979
▁gorillas	-8980
'?"	-8981
mate	-8982
▁lasers	-8983
▁showers	-8984
▁convince	-8985
▁character	-8986
▁condition	-8987
▁musicians	-8988
atest	-8989
hooray	-8990
▁avery	-8991
▁seated	-8992
▁practised	-8993
▁recommendation	-8994
▁yay	-8995
iciest	-8996
▁nanny	-8997
▁rosy	-8998
▁chili	-8999
▁drill	-9000
▁skips	-9001
▁stripe	-9002
▁frisbee	-9003
▁hovering	-9004
▁devastated	-9005
isie	-9006
▁canvas	-9007
▁huddled	-9008
▁lullaby	-9009
▁parrots	-9010
aging	-9011
prince	-9012
▁stormy	-9013
▁pleasant	-9014
▁soothing	-9015
▁compromise	-9016
▁josie	-9017
▁enjoys	-9018
▁glisten	-9019
ena	-9020
karen	-9021
▁reck	-9022
liness	-9023
spring	-9024
▁folders	-9025
▁airplanes	-9026
cindy	-9027
▁fulf	-9028
▁susp	-9029
▁allie	-9030
▁colin	-9031
▁values	-9032
▁ladybugs	-9033
inc	-9034
iring	-9035
▁runny	-9036
▁jonathan	-9037
▁temptation	-9038
new	-9039
▁till	-9040
▁hairs	-9041
▁actors	-9042
▁chalks	-9043
▁conductor	-9044
▁absolutely	-9045
▁anten	-9046
▁unfold	-9047
▁distracted	-9048
sho	-9049
▁reckless	-9050
▁mustaches	-9051
▁wax	-9052
speople	-9053
▁recess	-9054
▁headache	-9055
▁platform	-9056
▁townspeople	-9057
aming	-9058
▁combs	-9059
▁cords	-9060
▁piled	-9061
immered	-9062
▁considerate	-9063
res	-9064
wen	-9065
▁shields	-9066
▁neig	-9067
▁charged	-9068
imag	-9069
▁aroma	-9070
▁sturdy	-9071
▁harmony	-9072
▁wobbles	-9073
jessie	-9074
scotch	-9075
wisdom	-9076
▁caves	-9077
▁pantry	-9078
rings	-9079
▁soul	-9080
▁ashes	-9081
▁cables	-9082
▁horror	-9083
▁hamster	-9084
▁silently	-9085
▁gert	-9086
▁gemma	-9087
▁fences	-9088
▁beeping	-9089
▁disappears	-9090
flo	-9091
otion	-9092
▁buys	-9093
▁carol	-9094
▁spades	-9095
▁communicate	-9096
▁indo	-9097
▁aback	-9098
▁loads	-9099
▁enchant	-9100
▁lifeguard	-9101
▁magnifice	-9102
duck	-9103
▁ami	-9104
▁hoof	-9105
▁hollow	-9106
▁warmest	-9107
▁agreeing	-9108
▁embarrassing	-9109
push	-9110
▁clim	-9111
▁woodpe	-9112
▁motions	-9113
▁earrings	-9114
▁movement	-9115
▁ingredient	-9116
rap	-9117
poke	-9118
▁brad	-9119
▁blade	-9120
▁bruno	-9121
▁horsy	-9122
▁nelly	-9123
▁unwrap	-9124
▁snoring	-9125
oxygen	-9126
▁alongside	-9127
▁huff	-9128
▁aisles	-9129
▁payoff	-9130
▁pickles	-9131
▁scowled	-9132
▁keen	-9133
▁slight	-9134
▁jennifer	-9135
▁dedication	-9136
▁possibilities	-9137
chew	-9138
pippa	-9139
▁joseph	-9140
▁confidently	-9141
pret	-9142
▁pads	-9143
▁roxy	-9144
barrow	-9145
▁signal	-9146
▁antlers	-9147
▁pistols	-9148
▁magnificent	-9149
▁wheelbarrow	-9150
bs	-9151
whoa	-9152
robes	-9153
spark	-9154
▁plank	-9155
▁dumped	-9156
▁lookout	-9157
▁tuesdays	-9158
▁magically	-9159
▁roast	-9160
uses	-9161
▁workshop	-9162
rice	-9163
▁droop	-9164
▁handles	-9165
▁hurtful	-9166
▁deciding	-9167
▁cherished	-9168
vo	-9169
inn	-9170
butter	-9171
▁harvest	-9172
▁mesmerised	-9173
show	-9174
▁opt	-9175
▁doug	-9176
imagine	-9177
▁defeat	-9178
▁fourth	-9179
▁unkind	-9180
▁collars	-9181
▁squawked	-9182
lets	-9183
onut	-9184
umed	-9185
catty	-9186
▁code	-9187
▁coconut	-9188
▁greatest	-9189
wo	-9190
ics	-9191
▁fer	-9192
▁bebe	-9193
▁jigg	-9194
▁pollen	-9195
▁process	-9196
julia	-9197
▁crosses	-9198
▁woodpecker	-9199
bop	-9200
life	-9201
▁mixes	-9202
▁gulped	-9203
▁splitting	-9204
hippy	-9205
▁claus	-9206
▁towns	-9207
▁lilies	-9208
▁raises	-9209
▁cuddling	-9210
▁funniest	-9211
▁progress	-9212
▁saxophone	-9213
▁gret	-9214
▁yawns	-9215
▁inform	-9216
▁thrill	-9217
▁capture	-9218
▁current	-9219
ssy	-9220
aste	-9221
▁ned	-9222
▁begs	-9223
▁guided	-9224
▁leopards	-9225
▁tentacles	-9226
lee	-9227
inct	-9228
▁hammers	-9229
▁science	-9230
▁whipped	-9231
▁slur	-9232
▁climber	-9233
▁pancake	-9234
▁glistening	-9235
▁surprisingly	-9236
ami	-9237
jon	-9238
imbo	-9239
poor	-9240
▁sid	-9241
▁clare	-9242
▁crafts	-9243
▁joanne	-9244
▁somehow	-9245
▁hopscotch	-9246
▁randy	-9247
▁floaty	-9248
▁sleeve	-9249
▁dustpan	-9250
▁respecting	-9251
▁clothesline	-9252
exc	-9253
▁dizz	-9254
▁shots	-9255
▁jeremy	-9256
▁trunks	-9257
thur	-9258
▁motors	-9259
▁sleepover	-9260
▁continuing	-9261
▁jodie	-9262
▁amongst	-9263
▁steered	-9264
cow	-9265
whist	-9266
▁kenny	-9267
anytime	-9268
▁crispy	-9269
▁depths	-9270
▁nudged	-9271
▁widely	-9272
▁achievement	-9273
dolp	-9274
▁jes	-9275
▁calf	-9276
▁tastiest	-9277
▁introducing	-9278
rays	-9279
dream	-9280
▁bands	-9281
▁skate	-9282
wr	-9283
▁plo	-9284
▁circled	-9285
▁hideout	-9286
▁bathrobes	-9287
▁eve	-9288
crack	-9289
▁farms	-9290
▁scaly	-9291
▁stalk	-9292
▁bleeds	-9293
▁gladly	-9294
▁trailer	-9295
▁mur	-9296
squir	-9297
▁theat	-9298
▁carton	-9299
▁dodging	-9300
▁venture	-9301
▁pep	-9302
shake	-9303
▁dong	-9304
▁owning	-9305
▁rooster	-9306
▁entering	-9307
▁frightening	-9308
ift	-9309
sir	-9310
▁warns	-9311
'!"	-9312
ogo	-9313
kest	-9314
safe	-9315
cover	-9316
shoot	-9317
▁setup	-9318
▁unzip	-9319
▁indoors	-9320
▁ticking	-9321
alled	-9322
▁blush	-9323
▁minty	-9324
▁scree	-9325
▁snarled	-9326
▁spirits	-9327
▁compared	-9328
▁seahorse	-9329
uni	-9330
boos	-9331
▁bibo	-9332
▁greg	-9333
▁sisi	-9334
▁daily	-9335
▁giants	-9336
tomorrow	-9337
▁avoided	-9338
▁foreshadowing	-9339
▁tay	-9340
▁leng	-9341
▁sunb	-9342
squirrel	-9343
▁explode	-9344
▁preschool	-9345
▁solutions	-9346
tled	-9347
susan	-9348
▁inno	-9349
▁plum	-9350
▁cacti	-9351
careful	-9352
▁dining	-9353
caw	-9354
▁pace	-9355
▁tink	-9356
▁tone	-9357
excited	-9358
uttered	-9359
▁limped	-9360
▁victor	-9361
▁islands	-9362
▁purring	-9363
▁restoring	-9364
▁supplying	-9365
▁suspicious	-9366
oky	-9367
▁proved	-9368
▁contained	-9369
ada	-9370
ces	-9371
esy	-9372
ste	-9373
▁blur	-9374
▁theatre	-9375
▁flippers	-9376
asy	-9377
▁howl	-9378
▁purch	-9379
▁limits	-9380
▁wetter	-9381
▁wicked	-9382
▁poisonous	-9383
maya	-9384
tick	-9385
▁jaws	-9386
▁slime	-9387
▁roller	-9388
fun	-9389
gogo	-9390
pretty	-9391
▁instinct	-9392
itam	-9393
garet	-9394
▁access	-9395
▁lasted	-9396
▁calming	-9397
▁thunderstorm	-9398
▁conc	-9399
▁cheesy	-9400
▁obediently	-9401
fie	-9402
boun	-9403
ntly	-9404
▁isa	-9405
▁mid	-9406
▁poles	-9407
▁vitam	-9408
▁rectangle	-9409
foxy	-9410
ping	-9411
aries	-9412
mabel	-9413
▁ages	-9414
sitter	-9415
▁leafy	-9416
▁bundle	-9417
▁rustle	-9418
▁urging	-9419
▁matthew	-9420
lou	-9421
▁tilt	-9422
▁curve	-9423
▁dries	-9424
iga	-9425
luke	-9426
drink	-9427
▁nicky	-9428
▁rises	-9429
▁ronny	-9430
▁twirls	-9431
▁neighed	-9432
▁missiles	-9433
▁threatened	-9434
▁dia	-9435
▁hey	-9436
▁aband	-9437
▁grain	-9438
▁panting	-9439
▁pecking	-9440
▁stained	-9441
▁villain	-9442
▁repairman	-9443
▁exercising	-9444
▁mend	-9445
▁sean	-9446
robbie	-9447
▁tucks	-9448
▁frames	-9449
▁timothy	-9450
▁majestic	-9451
talk	-9452
▁blob	-9453
ateful	-9454
▁shame	-9455
▁smoky	-9456
▁chirps	-9457
▁recipes	-9458
▁escaping	-9459
▁tingling	-9460
tot	-9461
ality	-9462
▁scut	-9463
▁blend	-9464
▁north	-9465
▁hunger	-9466
down	-9467
nded	-9468
▁mumma	-9469
▁detective	-9470
▁notebooks	-9471
▁challenged	-9472
aps	-9473
cri	-9474
tara	-9475
▁clover	-9476
▁flowed	-9477
▁smoother	-9478
▁stroller	-9479
▁twitched	-9480
hot	-9481
wine	-9482
▁dodges	-9483
▁turkeys	-9484
▁knitting	-9485
lsey	-9486
▁bolt	-9487
▁rais	-9488
▁disgu	-9489
▁ladybird	-9490
bur	-9491
wed	-9492
rica	-9493
▁bled	-9494
▁lant	-9495
▁rick	-9496
▁perse	-9497
▁cooper	-9498
▁leaped	-9499
▁razors	-9500
▁babysitter	-9501
▁possessions	-9502
llent	-9503
▁invol	-9504
▁kneels	-9505
▁maisie	-9506
▁priest	-9507
▁command	-9508
▁flooded	-9509
▁lantern	-9510
▁lightly	-9511
▁million	-9512
▁notices	-9513
▁tiptoes	-9514
▁mischief	-9515
▁smoothly	-9516
tre	-9517
wn	-9518
bark	-9519
ical	-9520
▁tad	-9521
still	-9522
▁isla	-9523
▁africa	-9524
▁juggle	-9525
irty	-9526
toto	-9527
green	-9528
▁device	-9529
▁flavour	-9530
▁records	-9531
▁flashlights	-9532
ilar	-9533
▁roy	-9534
▁tul	-9535
▁swat	-9536
▁trim	-9537
▁greed	-9538
▁route	-9539
▁willow	-9540
▁plopped	-9541
▁protects	-9542
▁deck	-9543
▁bessy	-9544
▁dusted	-9545
▁strikes	-9546
▁pounding	-9547
▁refusing	-9548
▁removing	-9549
▁brightened	-9550
spicy	-9551
▁stiff	-9552
whistle	-9553
▁billie	-9554
▁stares	-9555
▁witches	-9556
▁volcanoes	-9557
▁kai	-9558
▁amen	-9559
▁envy	-9560
▁oars	-9561
▁undo	-9562
icated	-9563
inting	-9564
▁minnie	-9565
▁charity	-9566
▁raindrop	-9567
▁reappear	-9568
▁stomping	-9569
▁nightstand	-9570
issy	-9571
▁fuzz	-9572
number	-9573
sophia	-9574
▁snore	-9575
▁contented	-9576
▁displaying	-9577
arr	-9578
icia	-9579
lion	-9580
▁atop	-9581
▁tend	-9582
▁bruise	-9583
▁distract	-9584
▁performers	-9585
▁braid	-9586
▁champ	-9587
▁matty	-9588
▁persu	-9589
▁anybody	-9590
▁blossom	-9591
▁shrimps	-9592
hadow	-9593
▁melty	-9594
▁wagons	-9595
▁quicker	-9596
▁eyeshadow	-9597
▁organised	-9598
▁weed	-9599
▁freya	-9600
▁unload	-9601
▁zoomie	-9602
▁disguise	-9603
▁rightful	-9604
cha	-9605
ige	-9606
▁lur	-9607
▁toad	-9608
bouncy	-9609
▁prison	-9610
▁studies	-9611
▁arrested	-9612
▁tablecloth	-9613
crash	-9614
dizzy	-9615
▁handy	-9616
▁loser	-9617
▁juiciest	-9618
▁slightly	-9619
▁tripping	-9620
▁occasions	-9621
moon	-9622
▁unc	-9623
igaret	-9624
martha	-9625
vanish	-9626
▁mound	-9627
michael	-9628
▁length	-9629
▁lowers	-9630
▁accepting	-9631
▁scrunched	-9632
▁loneliness	-9633
cr	-9634
▁fran	-9635
▁rani	-9636
▁dialed	-9637
▁launch	-9638
▁fiercely	-9639
▁birthdays	-9640
▁community	-9641
cara	-9642
▁hike	-9643
▁soggy	-9644
▁cigaret	-9645
▁teaspoons	-9646
belt	-9647
jeff	-9648
matt	-9649
nick	-9650
▁gwen	-9651
▁dozed	-9652
▁fanny	-9653
▁taylor	-9654
▁snowing	-9655
▁hopeless	-9656
▁trumpets	-9657
▁enchanted	-9658
▁information	-9659
jan	-9660
kno	-9661
june	-9662
ously	-9663
▁chug	-9664
▁boiled	-9665
▁tiring	-9666
grateful	-9667
▁rumbled	-9668
▁forced	-9669
▁pounce	-9670
▁roamed	-9671
▁innocent	-9672
▁foreshadowed	-9673
ko	-9674
sal	-9675
umn	-9676
zel	-9677
▁tock	-9678
rupted	-9679
▁cutest	-9680
▁resour	-9681
▁ducklings	-9682
▁untangled	-9683
▁noah	-9684
▁speck	-9685
▁boarded	-9686
▁honeycom	-9687
▁fixes	-9688
▁oceans	-9689
▁guarded	-9690
▁scrubbing	-9691
upt	-9692
▁rum	-9693
izzie	-9694
▁alexa	-9695
▁roofs	-9696
▁doggie	-9697
▁events	-9698
▁wrists	-9699
▁combing	-9700
▁margaret	-9701
disa	-9702
abeth	-9703
arted	-9704
ushes	-9705
▁drags	-9706
▁spotty	-9707
▁grandad	-9708
▁parking	-9709
▁stretcher	-9710
jamin	-9711
disapp	-9712
▁erupt	-9713
▁proce	-9714
▁antenna	-9715
▁scolding	-9716
mosp	-9717
▁abc	-9718
▁doc	-9719
andel	-9720
▁lakes	-9721
▁ruled	-9722
release	-9723
▁arthur	-9724
▁atmosp	-9725
▁atmosphere	-9726
ele	-9727
dolph	-9728
kelly	-9729
linda	-9730
nings	-9731
▁creepy	-9732
▁salads	-9733
startled	-9734
▁designer	-9735
▁abandoned	-9736
fer	-9737
▁ah	-9738
▁hy	-9739
atic	-9740
bars	-9741
cies	-9742
▁kill	-9743
▁props	-9744
jessica	-9745
▁pinches	-9746
▁winking	-9747
▁pineapple	-9748
nana	-9749
uliar	-9750
▁bait	-9751
▁sizz	-9752
▁bangs	-9753
▁unlike	-9754
▁peculiar	-9755
skip	-9756
blink	-9757
opera	-9758
▁priv	-9759
▁gertie	-9760
▁richer	-9761
▁dizziness	-9762
▁handlebars	-9763
▁isab	-9764
▁rory	-9765
▁tiki	-9766
▁gorge	-9767
▁bumble	-9768
▁lawyers	-9769
▁emergencies	-9770
six	-9771
ton	-9772
filled	-9773
▁yards	-9774
▁contents	-9775
▁managing	-9776
▁sneaking	-9777
▁softness	-9778
▁fishermen	-9779
eras	-9780
mmmm	-9781
▁broo	-9782
lizzie	-9783
▁jetty	-9784
▁nephew	-9785
children	-9786
▁seatbelt	-9787
▁terribly	-9788
cel	-9789
▁begun	-9790
▁destr	-9791
▁diver	-9792
▁squirt	-9793
▁strict	-9794
ingly	-9795
▁anth	-9796
▁fanc	-9797
▁liar	-9798
beware	-9799
▁guilt	-9800
▁jeans	-9801
▁walkie	-9802
▁subject	-9803
▁delaying	-9804
▁settling	-9805
▁exchanged	-9806
▁grandchildren	-9807
stack	-9808
▁adop	-9809
▁jogs	-9810
coming	-9811
▁jimbo	-9812
▁spoken	-9813
▁grumble	-9814
▁ladders	-9815
▁valuing	-9816
▁clutched	-9817
▁gorgeous	-9818
▁presence	-9819
▁mailboxes	-9820
ooked	-9821
▁dora	-9822
▁heidi	-9823
▁wands	-9824
▁riches	-9825
▁daddies	-9826
ax	-9827
mi	-9828
▁lif	-9829
clean	-9830
▁damp	-9831
▁sung	-9832
granny	-9833
▁shaker	-9834
▁arrange	-9835
▁reality	-9836
▁caroline	-9837
▁heaviest	-9838
▁vitamins	-9839
mina	-9840
reme	-9841
spin	-9842
maddy	-9843
▁clin	-9844
▁glor	-9845
velvet	-9846
▁smash	-9847
▁albert	-9848
▁clocks	-9849
akes	-9850
eyed	-9851
blech	-9852
▁wavy	-9853
▁disob	-9854
▁tales	-9855
▁rhythms	-9856
jilly	-9857
rease	-9858
▁kanga	-9859
▁blinks	-9860
▁ripples	-9861
▁releasing	-9862
▁gummy	-9863
▁chippy	-9864
▁smokey	-9865
▁snatch	-9866
▁kindest	-9867
▁unstuck	-9868
▁requests	-9869
▁promising	-9870
easy	-9871
ession	-9872
ousand	-9873
▁energ	-9874
▁layla	-9875
▁reader	-9876
▁appears	-9877
▁useless	-9878
fox	-9879
▁lydia	-9880
▁sinks	-9881
▁tapes	-9882
▁eleven	-9883
▁explan	-9884
▁compare	-9885
▁fitting	-9886
▁clothing	-9887
▁meetings	-9888
▁thousand	-9889
▁performer	-9890
▁ungrateful	-9891
▁earthquakes	-9892
▁interrupted	-9893
ali	-9894
brown	-9895
suzie	-9896
▁crank	-9897
▁grasp	-9898
▁praises	-9899
▁ruffled	-9900
▁surrounding	-9901
ole	-9902
univer	-9903
▁lunged	-9904
▁mashed	-9905
▁barrels	-9906
▁extreme	-9907
▁valleys	-9908
▁tumbling	-9909
▁honeycomb	-9910
▁resisting	-9911
▁susy	-9912
▁pudding	-9913
▁totally	-9914
▁deeds	-9915
▁slams	-9916
▁skinny	-9917
▁unlocks	-9918
▁lovingly	-9919
▁skeletons	-9920
made	-9921
▁ret	-9922
abbie	-9923
▁dory	-9924
▁alfie	-9925
▁desce	-9926
▁petey	-9927
▁concert	-9928
▁hovered	-9929
▁pitcher	-9930
▁storing	-9931
▁injuries	-9932
▁licenses	-9933
▁purchase	-9934
jay	-9935
uren	-9936
▁var	-9937
elace	-9938
throw	-9939
ressed	-9940
▁acrob	-9941
▁audrey	-9942
▁bernie	-9943
▁elbows	-9944
▁flutes	-9945
▁trudged	-9946
▁shoelace	-9947
▁proceeded	-9948
▁reassuring	-9949
cup	-9950
▁mick	-9951
▁wadd	-9952
ulture	-9953
▁yelps	-9954
▁crashes	-9955
▁instant	-9956
▁nestled	-9957
▁outcome	-9958
▁sickness	-9959
▁attendant	-9960
▁sweetness	-9961
▁ivy	-9962
▁tax	-9963
chris	-9964
rover	-9965
▁angie	-9966
▁state	-9967
▁baller	-9968
▁prices	-9969
princess	-9970
▁patting	-9971
▁raisins	-9972
▁announce	-9973
▁nibbling	-9974
▁wrappers	-9975
dee	-9976
yog	-9977
oink	-9978
▁dim	-9979
ousel	-9980
▁shuff	-9981
▁wilma	-9982
curious	-9983
▁darted	-9984
▁bounded	-9985
▁greater	-9986
▁extremely	-9987
lli	-9988
sim	-9989
xie	-9990
grab	-9991
riet	-9992
ivated	-9993
▁curls	-9994
▁solid	-9995
▁prefer	-9996
▁willie	-9997
▁clucked	-9998
▁striped	-9999
▁cucumber	-10000
▁overflow	-10001
▁chattered	-10002
▁thoughtfully	-10003
pu	-10004
cool	-10005
▁caf	-10006
jenna	-10007
▁bins	-10008
▁prof	-10009
caroni	-10010
cheese	-10011
▁elder	-10012
▁fifty	-10013
▁strap	-10014
▁whizz	-10015
▁autumn	-10016
▁flakes	-10017
▁itches	-10018
▁carousel	-10019
▁disgusted	-10020
▁connection	-10021
att	-10022
awn	-10023
nis	-10024
▁py	-10025
clap	-10026
dled	-10027
rope	-10028
shut	-10029
▁pier	-10030
maddie	-10031
▁greta	-10032
▁thirty	-10033
▁cracking	-10034
▁isabella	-10035
▁kayaking	-10036
▁seashells	-10037
?,"	-10038
bree	-10039
fido	-10040
choose	-10041
▁dodge	-10042
▁adjust	-10043
▁cranky	-10044
▁goldie	-10045
▁servants	-10046
▁commotion	-10047
ils	-10048
▁ec	-10049
▁radi	-10050
▁stems	-10051
▁blessed	-10052
▁embrace	-10053
▁explanation	-10054
ylan	-10055
▁doub	-10056
▁dylan	-10057
▁charles	-10058
▁passion	-10059
▁timidly	-10060
▁macaroni	-10061
▁quitting	-10062
umph	-10063
▁nin	-10064
▁sta	-10065
▁ver	-10066
betsy	-10067
unior	-10068
▁ecst	-10069
▁gail	-10070
▁mops	-10071
▁poof	-10072
▁hilda	-10073
▁resol	-10074
another	-10075
hearted	-10076
▁loosen	-10077
▁medium	-10078
▁scarier	-10079
▁streaming	-10080
pig	-10081
▁cy	-10082
field	-10083
itlyn	-10084
▁beeps	-10085
▁boast	-10086
▁salsa	-10087
yesterday	-10088
▁squirmed	-10089
hoo	-10090
unted	-10091
▁sons	-10092
making	-10093
▁benef	-10094
▁bould	-10095
▁chant	-10096
▁steph	-10097
▁freshly	-10098
▁locking	-10099
▁rudolph	-10100
▁stunned	-10101
▁training	-10102
▁elizabeth	-10103
▁instincts	-10104
anta	-10105
hist	-10106
▁cha	-10107
▁chomp	-10108
▁boomed	-10109
▁sicker	-10110
▁snails	-10111
▁speeds	-10112
▁springs	-10113
▁wrinkly	-10114
▁yielding	-10115
▁practising	-10116
ram	-10117
zoo	-10118
race	-10119
ridge	-10120
record	-10121
▁donut	-10122
▁lumpy	-10123
▁ecstatic	-10124
▁grandkids	-10125
vor	-10126
▁ko	-10127
nobody	-10128
seeing	-10129
▁moles	-10130
history	-10131
▁erased	-10132
▁ballerina	-10133
▁godmother	-10134
haps	-10135
▁adv	-10136
▁ogre	-10137
▁cerem	-10138
▁dragging	-10139
cip	-10140
ppa	-10141
annel	-10142
henny	-10143
▁frant	-10144
▁liking	-10145
▁flipper	-10146
▁princip	-10147
▁complicated	-10148
.''	-10149
eves	-10150
▁obl	-10151
along	-10152
▁vacu	-10153
market	-10154
▁gloom	-10155
▁bailey	-10156
▁sorrow	-10157
▁channel	-10158
▁collage	-10159
▁spreads	-10160
▁wasteful	-10161
▁obstacles	-10162
▁cauliflowers	-10163
▁kar	-10164
balls	-10165
ethan	-10166
mikey	-10167
simon	-10168
▁marcy	-10169
▁urges	-10170
▁assist	-10171
▁nathan	-10172
▁private	-10173
▁screech	-10174
▁squeaks	-10175
▁benjamin	-10176
▁ceremony	-10177
▁scooping	-10178
pie	-10179
ryan	-10180
▁awa	-10181
▁mast	-10182
▁cutters	-10183
▁service	-10184
▁carefree	-10185
▁favorites	-10186
jacky	-10187
santa	-10188
tling	-10189
▁lobby	-10190
▁curves	-10191
▁fading	-10192
▁equally	-10193
▁musical	-10194
▁pendant	-10195
▁stations	-10196
▁numbering	-10197
▁snuggling	-10198
gas	-10199
gets	-10200
▁fizz	-10201
▁geor	-10202
▁plow	-10203
birdie	-10204
▁clung	-10205
▁saves	-10206
▁alison	-10207
▁dandel	-10208
▁toothp	-10209
▁glimmer	-10210
▁weights	-10211
▁shiniest	-10212
▁delightful	-10213
▁supermarket	-10214
dara	-10215
▁voy	-10216
▁budd	-10217
▁craz	-10218
▁angela	-10219
▁tickly	-10220
▁tingle	-10221
▁princes	-10222
▁forwards	-10223
▁homeless	-10224
▁lunchbox	-10225
▁playfully	-10226
▁toothpaste	-10227
▁independence	-10228
gus	-10229
sery	-10230
▁nia	-10231
▁grains	-10232
▁unsafe	-10233
▁porridge	-10234
▁invention	-10235
▁recovered	-10236
test	-10237
inema	-10238
▁mums	-10239
▁nursery	-10240
▁daydream	-10241
▁includes	-10242
▁steaming	-10243
▁trophies	-10244
▁principal	-10245
▁preventing	-10246
pay	-10247
vacy	-10248
▁balc	-10249
▁burt	-10250
▁calms	-10251
▁kathy	-10252
▁cinema	-10253
▁cranes	-10254
▁jingle	-10255
samantha	-10256
▁privacy	-10257
▁sleeves	-10258
▁soundly	-10259
▁triumph	-10260
▁uniting	-10261
dangerous	-10262
▁captured	-10263
▁gardening	-10264
▁suitcases	-10265
▁tightrope	-10266
long	-10267
rrrr	-10268
janie	-10269
▁cloak	-10270
▁remains	-10271
▁galloped	-10272
▁slowpoke	-10273
▁unicorns	-10274
▁sniffling	-10275
▁destruction	-10276
di	-10277
haw	-10278
jackie	-10279
▁ellen	-10280
▁fully	-10281
▁scrape	-10282
▁thinner	-10283
▁reaction	-10284
▁dishonest	-10285
warn	-10286
robot	-10287
▁pits	-10288
▁toni	-10289
▁ponyt	-10290
▁rattle	-10291
▁culture	-10292
▁spanish	-10293
▁addition	-10294
▁allowance	-10295
▁anxiously	-10296
▁strolling	-10297
asper	-10298
vious	-10299
▁flam	-10300
▁banks	-10301
▁outing	-10302
▁steaks	-10303
▁catcher	-10304
▁lurking	-10305
▁swirled	-10306
▁adventurers	-10307
vd	-10308
eline	-10309
▁brake	-10310
▁sprung	-10311
▁voyage	-10312
▁attempt	-10313
▁gliding	-10314
disappear	-10315
▁champion	-10316
▁cleanest	-10317
▁sweeping	-10318
▁discussion	-10319
!,"	-10320
nan	-10321
imba	-10322
▁mickey	-10323
▁nuzzles	-10324
▁richard	-10325
nes	-10326
math	-10327
▁vast	-10328
applau	-10329
talkie	-10330
▁louie	-10331
stretch	-10332
without	-10333
▁report	-10334
▁studio	-10335
▁balcony	-10336
▁begging	-10337
▁flamingo	-10338
▁mornings	-10339
▁popsicles	-10340
▁supportive	-10341
▁abcs	-10342
whoosh	-10343
▁goods	-10344
▁lolly	-10345
▁online	-10346
▁boulder	-10347
▁projects	-10348
▁abilities	-10349
▁disobedient	-10350
amon	-10351
▁dvd	-10352
▁unz	-10353
ralph	-10354
▁jellie	-10355
▁potent	-10356
▁saddle	-10357
▁messing	-10358
▁unfolded	-10359
young	-10360
▁octo	-10361
▁taco	-10362
stella	-10363
▁vases	-10364
▁kelsey	-10365
▁photog	-10366
▁shaken	-10367
although	-10368
▁partner	-10369
▁swirling	-10370
▁pave	-10371
▁tang	-10372
▁appet	-10373
▁howled	-10374
▁wilbur	-10375
▁deepest	-10376
▁johnnie	-10377
▁replies	-10378
▁regularly	-10379
rer	-10380
ilst	-10381
▁guid	-10382
▁choke	-10383
▁honor	-10384
▁stray	-10385
▁harmful	-10386
▁whining	-10387
▁guidance	-10388
▁hurrying	-10389
ech	-10390
etti	-10391
▁raw	-10392
▁cabb	-10393
▁spied	-10394
▁curved	-10395
▁desire	-10396
▁fairly	-10397
▁infect	-10398
▁reddest	-10399
▁runners	-10400
▁grounded	-10401
▁jealousy	-10402
▁replacing	-10403
▁accessories	-10404
fight	-10405
girls	-10406
▁rink	-10407
applaud	-10408
▁imagin	-10409
▁janice	-10410
▁justin	-10411
▁bruised	-10412
▁cameras	-10413
▁resumed	-10414
▁screens	-10415
▁confetti	-10416
▁pavement	-10417
▁strummed	-10418
▁shimmered	-10419
od	-10420
dot	-10421
▁unh	-10422
▁brats	-10423
▁carlos	-10424
▁snorts	-10425
▁speech	-10426
▁motioned	-10427
ooo	-10428
drop	-10429
last	-10430
▁kara	-10431
master	-10432
▁doggo	-10433
▁skulls	-10434
▁snowed	-10435
▁buddies	-10436
▁scrunch	-10437
▁spinach	-10438
▁popsicle	-10439
▁switches	-10440
▁possession	-10441
bri	-10442
park	-10443
acher	-10444
▁halls	-10445
▁bossed	-10446
▁sandals	-10447
▁grinning	-10448
▁selfishness	-10449
zo	-10450
▁gn	-10451
upted	-10452
▁marty	-10453
▁sucked	-10454
▁erupted	-10455
▁horrified	-10456
rit	-10457
essa	-10458
▁hugo	-10459
▁pals	-10460
▁targets	-10461
university	-10462
ants	-10463
stir	-10464
cloud	-10465
mister	-10466
▁basil	-10467
▁driven	-10468
▁monica	-10469
▁cabbage	-10470
▁paddles	-10471
▁gestures	-10472
bloom	-10473
cathy	-10474
sadie	-10475
stitch	-10476
▁chunk	-10477
▁jemma	-10478
▁jules	-10479
▁mason	-10480
▁constr	-10481
▁explos	-10482
▁worlds	-10483
▁entertain	-10484
▁wednesdays	-10485
▁contentment	-10486
cir	-10487
roll	-10488
ruff	-10489
ption	-10490
ships	-10491
ziggy	-10492
▁fists	-10493
▁glide	-10494
▁glimp	-10495
▁carved	-10496
▁huffed	-10497
▁chickie	-10498
▁freeing	-10499
▁majesty	-10500
▁potential	-10501
▁accidently	-10502
▁carelessly	-10503
▁challenging	-10504
pam	-10505
helle	-10506
▁fewer	-10507
▁stump	-10508
▁nellie	-10509
▁quarre	-10510
▁product	-10511
▁repairs	-10512
▁acrobats	-10513
▁biscuits	-10514
▁measures	-10515
▁warriors	-10516
▁hopefully	-10517
▁scribbled	-10518
▁fashionable	-10519
wear	-10520
▁anty	-10521
robert	-10522
▁paste	-10523
▁brooke	-10524
▁tagged	-10525
▁ada	-10526
▁owe	-10527
davey	-10528
itive	-10529
maker	-10530
▁whoo	-10531
beying	-10532
▁views	-10533
innamon	-10534
▁edward	-10535
▁pucker	-10536
▁spinner	-10537
▁streams	-10538
▁frantically	-10539
law	-10540
nut	-10541
umbers	-10542
▁equal	-10543
▁grizz	-10544
▁perked	-10545
▁snipped	-10546
▁cinnamon	-10547
▁whistler	-10548
▁feathered	-10549
▁hammering	-10550
nur	-10551
▁exhi	-10552
▁diana	-10553
▁defend	-10554
▁france	-10555
▁hungrier	-10556
▁wobbling	-10557
▁punishing	-10558
▁importantly	-10559
bing	-10560
cook	-10561
rily	-10562
marry	-10563
pilot	-10564
strike	-10565
▁tilts	-10566
▁whisk	-10567
▁descri	-10568
▁goalie	-10569
▁sunsets	-10570
▁inspected	-10571
▁journeyed	-10572
▁resources	-10573
toy	-10574
iddy	-10575
pers	-10576
▁polka	-10577
▁cleare	-10578
▁ducked	-10579
▁scarfs	-10580
▁serves	-10581
▁exercised	-10582
▁peacefulness	-10583
▁silk	-10584
▁cases	-10585
▁confu	-10586
▁jeeps	-10587
▁layer	-10588
▁pouts	-10589
▁taxis	-10590
▁digger	-10591
▁subjects	-10592
▁lumberjack	-10593
oebe	-10594
anked	-10595
etime	-10596
nurse	-10597
▁mara	-10598
▁roam	-10599
▁sunk	-10600
oliver	-10601
▁lately	-10602
▁lauren	-10603
▁pastor	-10604
▁thirst	-10605
▁exhibit	-10606
▁sounding	-10607
▁descended	-10608
▁sul	-10609
larry	-10610
▁scan	-10611
▁tresp	-10612
▁blurry	-10613
▁copies	-10614
▁excuse	-10615
▁heater	-10616
▁marcus	-10617
▁sevent	-10618
▁flipping	-10619
▁snatches	-10620
acul	-10621
▁zap	-10622
▁brag	-10623
▁cass	-10624
▁cate	-10625
monkey	-10626
▁percy	-10627
▁cursed	-10628
▁skates	-10629
▁sucking	-10630
▁antennae	-10631
▁grumbling	-10632
▁infection	-10633
▁lexi	-10634
▁wond	-10635
▁becca	-10636
▁manny	-10637
▁mitts	-10638
▁advant	-10639
▁jogger	-10640
▁gaining	-10641
▁afterward	-10642
atted	-10643
spray	-10644
▁carn	-10645
▁clam	-10646
▁jade	-10647
▁rash	-10648
▁carve	-10649
▁ringo	-10650
▁swift	-10651
▁junior	-10652
▁stomps	-10653
▁pricked	-10654
▁everytime	-10655
bon	-10656
pol	-10657
chard	-10658
laura	-10659
▁cora	-10660
ickest	-10661
▁freely	-10662
▁crooked	-10663
▁haystack	-10664
▁lifetime	-10665
▁pedalled	-10666
▁crackling	-10667
▁energized	-10668
▁captivated	-10669
▁scientists	-10670
▁grandparent	-10671
lv	-10672
wi	-10673
hon	-10674
▁rh	-10675
aron	-10676
▁empt	-10677
▁site	-10678
▁tran	-10679
▁zone	-10680
▁walker	-10681
▁chances	-10682
congratul	-10683
▁firewood	-10684
congratulations	-10685
gs	-10686
▁nic	-10687
▁gobl	-10688
▁trace	-10689
▁gobble	-10690
▁surfer	-10691
▁railing	-10692
▁stephen	-10693
▁brighten	-10694
ssssssssssssssss	-10695
acle	-10696
▁dazz	-10697
▁oper	-10698
▁ruffy	-10699
▁heated	-10700
▁wilted	-10701
▁melanie	-10702
▁mustard	-10703
▁embraced	-10704
▁stunning	-10705
▁embarrassment	-10706
isher	-10707
▁chaos	-10708
▁pedro	-10709
▁piper	-10710
▁clinic	-10711
▁fruity	-10712
▁placing	-10713
▁reflect	-10714
▁sniffles	-10715
▁advantage	-10716
▁clutching	-10717
▁crunching	-10718
▁tightened	-10719
▁vanishing	-10720
▁surrendering	-10721
spell	-10722
unate	-10723
▁feared	-10724
▁joyous	-10725
▁trails	-10726
▁booming	-10727
▁propell	-10728
▁painters	-10729
pin	-10730
beam	-10731
▁tam	-10732
▁mars	-10733
▁glist	-10734
▁ouchy	-10735
▁coughs	-10736
▁inched	-10737
▁lastly	-10738
▁monday	-10739
▁terror	-10740
▁whilst	-10741
▁protest	-10742
▁quality	-10743
▁carriage	-10744
▁excellent	-10745
▁fulfilled	-10746
izza	-10747
yoga	-10748
▁vow	-10749
pizza	-10750
▁ethan	-10751
▁peppa	-10752
▁belief	-10753
▁sealed	-10754
▁winnie	-10755
wednesday	-10756
▁trapping	-10757
▁remaining	-10758
▁mattresses	-10759
▁springtime	-10760
',"	-10761
top	-10762
▁bro	-10763
birds	-10764
chest	-10765
▁sele	-10766
copper	-10767
▁crumble	-10768
▁grizzly	-10769
▁inspect	-10770
▁scruffy	-10771
butterfly	-10772
▁involved	-10773
▁glistened	-10774
ban	-10775
rupt	-10776
▁dem	-10777
▁pew	-10778
neigh	-10779
▁joel	-10780
▁wasp	-10781
▁bills	-10782
▁reins	-10783
▁rarely	-10784
confused	-10785
▁classes	-10786
▁concentrated	-10787
bre	-10788
min	-10789
honk	-10790
chers	-10791
▁rasp	-10792
giving	-10793
▁hobby	-10794
▁bobbed	-10795
▁quiver	-10796
▁trevor	-10797
▁twitch	-10798
▁protector	-10799
▁victorious	-10800
▁overflowing	-10801
nds	-10802
tes	-10803
feel	-10804
▁eli	-10805
inked	-10806
▁erin	-10807
▁rina	-10808
▁tack	-10809
▁unsc	-10810
▁react	-10811
▁effect	-10812
▁tastier	-10813
▁combined	-10814
▁scuttled	-10815
▁sneakers	-10816
▁staircase	-10817
bum	-10818
nse	-10819
farm	-10820
omoo	-10821
▁dut	-10822
▁poo	-10823
about	-10824
peace	-10825
▁hind	-10826
▁rejo	-10827
▁feeds	-10828
▁tabby	-10829
▁behold	-10830
▁dismay	-10831
▁kayaks	-10832
▁moomoo	-10833
▁runway	-10834
▁ironing	-10835
▁shaving	-10836
▁teddies	-10837
▁tending	-10838
▁seashell	-10839
▁unloaded	-10840
▁hesitantly	-10841
bun	-10842
mae	-10843
sof	-10844
slap	-10845
wend	-10846
wind	-10847
fteen	-10848
▁fate	-10849
▁gaby	-10850
▁unpl	-10851
▁outer	-10852
▁simba	-10853
frankie	-10854
▁shades	-10855
▁vacuum	-10856
▁kaitlyn	-10857
▁miracul	-10858
▁refuses	-10859
▁stylish	-10860
▁unlucky	-10861
▁spitting	-10862
▁sculptures	-10863
nn	-10864
▁oo	-10865
iety	-10866
udge	-10867
looks	-10868
sides	-10869
▁dawn	-10870
▁china	-10871
▁dials	-10872
▁fired	-10873
▁marco	-10874
▁mirrors	-10875
▁breathes	-10876
▁silliest	-10877
iona	-10878
katy	-10879
venge	-10880
▁diaper	-10881
▁besides	-10882
▁glimpse	-10883
▁carnival	-10884
▁hammered	-10885
▁shoreline	-10886
▁background	-10887
mint	-10888
rewell	-10889
▁celly	-10890
▁forky	-10891
▁huggy	-10892
▁posts	-10893
restore	-10894
▁bandaged	-10895
▁farewell	-10896
▁interests	-10897
▁conversations	-10898
cap	-10899
tra	-10900
beha	-10901
▁donna	-10902
▁glues	-10903
▁hating	-10904
▁magpie	-10905
▁stalks	-10906
▁howling	-10907
▁insists	-10908
▁leashes	-10909
▁options	-10910
▁paramed	-10911
▁shuffled	-10912
▁cucumbers	-10913
▁hurriedly	-10914
ald	-10915
rous	-10916
soup	-10917
▁bub	-10918
eness	-10919
ipper	-10920
marie	-10921
rough	-10922
table	-10923
▁bust	-10924
▁kiwi	-10925
▁pang	-10926
change	-10927
peanut	-10928
▁dares	-10929
▁lance	-10930
▁alfred	-10931
▁trixie	-10932
▁bubbled	-10933
▁leaders	-10934
▁similar	-10935
▁sipping	-10936
▁droplets	-10937
▁floaties	-10938
▁relation	-10939
raw	-10940
lemon	-10941
▁tech	-10942
amelia	-10943
▁smoot	-10944
▁coiled	-10945
▁meaner	-10946
▁bullies	-10947
▁carpets	-10948
▁grownups	-10949
aah	-10950
▁dor	-10951
▁pry	-10952
tingu	-10953
▁album	-10954
▁cawed	-10955
▁cents	-10956
▁eater	-10957
▁packs	-10958
▁slaps	-10959
▁wanda	-10960
▁french	-10961
▁goblin	-10962
▁impact	-10963
▁mousey	-10964
▁crackle	-10965
▁creaked	-10966
▁demands	-10967
▁extingu	-10968
▁fetches	-10969
▁sharpen	-10970
▁approval	-10971
▁nightfall	-10972
▁storybook	-10973
▁hardworking	-10974
hh	-10975
!''	-10976
aya	-10977
kki	-10978
anya	-10979
▁dil	-10980
maisy	-10981
▁tiara	-10982
▁feeder	-10983
▁jasper	-10984
▁ignores	-10985
▁leaping	-10986
▁rustled	-10987
▁stitched	-10988
▁trespass	-10989
▁baseballs	-10990
▁imaginative	-10991
ls	-10992
quit	-10993
▁jugs	-10994
▁menus	-10995
▁hooked	-10996
▁losers	-10997
▁syring	-10998
▁jiggled	-10999
▁glinting	-11000
▁sheepish	-11001
abi	-11002
ider	-11003
jojo	-11004
yell	-11005
▁ker	-11006
fiona	-11007
nancy	-11008
speed	-11009
▁loss	-11010
edience	-11011
unities	-11012
▁uneasy	-11013
▁bethany	-11014
▁revenge	-11015
▁meatballs	-11016
▁opportunities	-11017
▁sen	-11018
gency	-11019
gling	-11020
▁rugs	-11021
handed	-11022
▁doubt	-11023
▁murky	-11024
▁buzzes	-11025
▁harold	-11026
▁artists	-11027
▁fifteen	-11028
▁padlock	-11029
▁syringe	-11030
▁toughest	-11031
▁unfreeze	-11032
▁wondrous	-11033
▁blessings	-11034
▁forgetful	-11035
▁overnight	-11036
mit	-11037
ruth	-11038
greet	-11039
▁moist	-11040
▁risen	-11041
▁darken	-11042
▁double	-11043
everyday	-11044
▁closest	-11045
▁endless	-11046
▁forming	-11047
▁simplest	-11048
▁squatted	-11049
▁propeller	-11050
▁succeeding	-11051
▁collections	-11052
har	-11053
emer	-11054
rudy	-11055
toes	-11056
▁lens	-11057
▁plun	-11058
▁reel	-11059
▁swip	-11060
▁dilig	-11061
teacher	-11062
▁habits	-11063
elephant	-11064
▁position	-11065
▁stumbling	-11066
▁complimented	-11067
luc	-11068
▁moe	-11069
▁ups	-11070
dance	-11071
fuzzy	-11072
▁untw	-11073
▁boris	-11074
▁guppy	-11075
▁ridden	-11076
▁passage	-11077
▁gleaming	-11078
▁strengths	-11079
?'.	-11080
mic	-11081
ria	-11082
▁lor	-11083
arked	-11084
holly	-11085
▁cale	-11086
▁sips	-11087
phones	-11088
▁jesus	-11089
through	-11090
▁meanie	-11091
▁cabinets	-11092
▁creaking	-11093
▁michelle	-11094
pup	-11095
vey	-11096
float	-11097
rollie	-11098
▁lacey	-11099
▁mules	-11100
▁spine	-11101
▁chests	-11102
▁maxine	-11103
▁bobbing	-11104
▁jackson	-11105
▁securely	-11106
▁spelling	-11107
▁concentrate	-11108
idy	-11109
beat	-11110
swim	-11111
▁fri	-11112
▁clar	-11113
▁bulls	-11114
▁clums	-11115
▁confr	-11116
▁scott	-11117
▁alicia	-11118
▁banner	-11119
▁barbec	-11120
▁yummier	-11121
▁congratulations	-11122
god	-11123
ixie	-11124
▁buds	-11125
▁adopt	-11126
▁beary	-11127
▁chief	-11128
▁pluck	-11129
▁afloat	-11130
▁unwell	-11131
emergency	-11132
▁flavours	-11133
▁struggles	-11134
dis	-11135
ongo	-11136
▁cupped	-11137
▁debbie	-11138
▁screec	-11139
▁assured	-11140
▁ticklish	-11141
▁explosion	-11142
▁receiving	-11143
▁due	-11144
check	-11145
▁anya	-11146
▁lave	-11147
▁nell	-11148
▁owen	-11149
▁dying	-11150
▁leaks	-11151
▁ballet	-11152
▁phoebe	-11153
▁unison	-11154
▁lavender	-11155
▁attacking	-11156
▁confusing	-11157
▁scribbles	-11158
▁wriggling	-11159
bag	-11160
erie	-11161
mbur	-11162
peek	-11163
▁mmm	-11164
cluck	-11165
succe	-11166
▁mini	-11167
▁sami	-11168
▁smir	-11169
▁gnome	-11170
▁picky	-11171
iscilla	-11172
▁combin	-11173
▁hambur	-11174
▁ladies	-11175
▁packet	-11176
▁teases	-11177
▁veggie	-11178
▁grounds	-11179
▁mothers	-11180
▁orchard	-11181
▁marveling	-11182
▁cleverness	-11183
ds	-11184
kit	-11185
pert	-11186
nearby	-11187
▁coast	-11188
▁emmie	-11189
rainbow	-11190
▁intent	-11191
▁ponder	-11192
▁clearer	-11193
▁warming	-11194
▁contentedly	-11195
▁thoughtfulness	-11196
eze	-11197
sent	-11198
▁foss	-11199
▁mango	-11200
brownie	-11201
▁archie	-11202
▁rupert	-11203
coloured	-11204
▁heather	-11205
▁plumber	-11206
greetings	-11207
▁admitted	-11208
▁displays	-11209
▁unzipped	-11210
wink	-11211
buggy	-11212
could	-11213
missy	-11214
rolly	-11215
sofia	-11216
truck	-11217
▁dice	-11218
sticks	-11219
▁caleb	-11220
▁roles	-11221
▁awaited	-11222
▁splashy	-11223
▁violins	-11224
operation	-11225
▁register	-11226
▁secretly	-11227
▁sentence	-11228
▁spotless	-11229
▁thanksgiving	-11230
pow	-11231
pre	-11232
dles	-11233
lvia	-11234
pull	-11235
unte	-11236
enter	-11237
wendy	-11238
▁vibr	-11239
behave	-11240
▁boing	-11241
▁rhyme	-11242
whoever	-11243
▁cities	-11244
▁sunbeam	-11245
emmy	-11246
seed	-11247
▁armor	-11248
▁moose	-11249
▁betray	-11250
▁croaks	-11251
▁gloria	-11252
increase	-11253
▁perhaps	-11254
▁wrecked	-11255
▁meanings	-11256
▁muttered	-11257
▁quickest	-11258
▁resolved	-11259
▁headphones	-11260
olk	-11261
pot	-11262
bees	-11263
dogs	-11264
kick	-11265
paws	-11266
▁ooh	-11267
bring	-11268
seven	-11269
▁biff	-11270
▁cock	-11271
▁main	-11272
▁batch	-11273
▁beepy	-11274
▁freck	-11275
▁potty	-11276
▁critter	-11277
▁luckier	-11278
▁posters	-11279
▁appetite	-11280
▁obstacle	-11281
▁ponytail	-11282
ji	-11283
ela	-11284
fth	-11285
roo	-11286
ulty	-11287
▁blu	-11288
▁jer	-11289
jonny	-11290
▁alas	-11291
▁halo	-11292
▁moan	-11293
▁pest	-11294
▁forty	-11295
▁perch	-11296
▁dearly	-11297
▁mended	-11298
▁smudge	-11299
▁copying	-11300
▁grazing	-11301
▁sighing	-11302
▁vendors	-11303
▁keyboard	-11304
oil	-11305
desp	-11306
rican	-11307
▁aims	-11308
▁cork	-11309
▁seth	-11310
itters	-11311
▁cubey	-11312
▁rumma	-11313
▁trays	-11314
▁dennis	-11315
▁neared	-11316
▁radios	-11317
▁stalls	-11318
▁anthill	-11319
▁sunburn	-11320
▁barbecue	-11321
▁collapse	-11322
▁littlest	-11323
▁sweating	-11324
▁amazingly	-11325
▁luxurious	-11326
tac	-11327
drag	-11328
▁som	-11329
wheel	-11330
▁herd	-11331
▁amuse	-11332
▁flush	-11333
▁soaps	-11334
▁splin	-11335
▁cocked	-11336
▁option	-11337
▁prepar	-11338
▁scoring	-11339
▁skating	-11340
▁spatula	-11341
excitedly	-11342
▁arriving	-11343
▁bedrooms	-11344
▁chimneys	-11345
▁homemade	-11346
ffy	-11347
frag	-11348
▁sunda	-11349
▁surge	-11350
feeling	-11351
▁begins	-11352
▁greens	-11353
▁parades	-11354
▁stumbles	-11355
▁whooshing	-11356
▁chattering	-11357
▁ic	-11358
sary	-11359
supp	-11360
todd	-11361
▁laz	-11362
bbies	-11363
brina	-11364
farmer	-11365
▁blind	-11366
▁stead	-11367
despite	-11368
▁donate	-11369
▁trades	-11370
▁tumble	-11371
▁watery	-11372
▁clamber	-11373
▁harriet	-11374
▁scrapes	-11375
▁insistent	-11376
▁thousands	-11377
rina	-11378
▁fifth	-11379
▁pippy	-11380
▁strut	-11381
▁swish	-11382
erestim	-11383
▁direct	-11384
▁rinses	-11385
▁yanked	-11386
▁fulfill	-11387
▁volunte	-11388
▁birdseed	-11389
▁journals	-11390
▁snarling	-11391
▁traveler	-11392
▁whirring	-11393
▁childhood	-11394
▁cornfield	-11395
▁squeaking	-11396
▁uncertain	-11397
▁cigarettes	-11398
▁considered	-11399
▁protective	-11400
▁underestim	-11401
▁quarrelling	-11402
aww	-11403
becky	-11404
▁rhym	-11405
▁jesse	-11406
▁oblig	-11407
▁bullet	-11408
▁juliet	-11409
▁sneezy	-11410
▁admires	-11411
▁fighters	-11412
▁normally	-11413
ata	-11414
kip	-11415
izmo	-11416
muff	-11417
▁ket	-11418
andra	-11419
queen	-11420
▁theo	-11421
enough	-11422
▁celia	-11423
▁curse	-11424
▁dates	-11425
▁death	-11426
▁silky	-11427
fragile	-11428
▁kaylee	-11429
▁remark	-11430
▁yachts	-11431
▁echoing	-11432
▁flopped	-11433
▁peering	-11434
▁collects	-11435
▁stephanie	-11436
amm	-11437
hal	-11438
nine	-11439
tast	-11440
vict	-11441
▁arc	-11442
▁cit	-11443
▁mei	-11444
▁axes	-11445
▁nemo	-11446
▁boost	-11447
▁conso	-11448
▁newly	-11449
▁postc	-11450
warning	-11451
▁braids	-11452
▁enters	-11453
▁friday	-11454
▁ravens	-11455
▁samuel	-11456
▁wizards	-11457
▁greeting	-11458
▁sprinted	-11459
▁stroking	-11460
▁screeched	-11461
▁suggesting	-11462
pole	-11463
▁zeb	-11464
▁gaps	-11465
▁tags	-11466
▁canes	-11467
▁grave	-11468
▁muffy	-11469
▁rakes	-11470
▁tulip	-11471
▁benefit	-11472
▁grownup	-11473
mu	-11474
eva	-11475
▁indy	-11476
belief	-11477
▁agnes	-11478
▁demon	-11479
▁woody	-11480
▁layers	-11481
▁walter	-11482
▁wilder	-11483
▁compost	-11484
▁funnier	-11485
▁hobbies	-11486
▁obliged	-11487
▁parting	-11488
▁betrayed	-11489
▁achieving	-11490
▁amusement	-11491
▁clipboard	-11492
fash	-11493
wing	-11494
word	-11495
again	-11496
break	-11497
oodle	-11498
puppy	-11499
twist	-11500
▁juan	-11501
▁rent	-11502
amanda	-11503
chocol	-11504
fashion	-11505
▁sharky	-11506
▁wildly	-11507
▁anniver	-11508
▁anyways	-11509
▁cookout	-11510
▁fingert	-11511
chocolate	-11512
▁playmate	-11513
▁apartment	-11514
▁difficulty	-11515
zee	-11516
?"."	-11517
lice	-11518
perp	-11519
▁dun	-11520
bravo	-11521
▁boop	-11522
▁cleo	-11523
▁lara	-11524
▁outs	-11525
▁symp	-11526
alling	-11527
▁beats	-11528
▁swell	-11529
▁tiles	-11530
▁smarts	-11531
▁existed	-11532
▁surfers	-11533
▁trainer	-11534
▁uncover	-11535
▁clicking	-11536
▁persuade	-11537
▁villager	-11538
▁villains	-11539
▁regretful	-11540
▁anniversary	-11541
▁cooperative	-11542
hat	-11543
vie	-11544
fair	-11545
▁alp	-11546
▁kil	-11547
fetch	-11548
▁cann	-11549
▁summ	-11550
minded	-11551
▁clang	-11552
▁crump	-11553
▁fondly	-11554
▁litter	-11555
▁pickle	-11556
▁spoilt	-11557
▁superp	-11558
▁despair	-11559
▁persever	-11560
▁rejoiced	-11561
tag	-11562
▁bla	-11563
jelly	-11564
novel	-11565
▁abbi	-11566
▁paige	-11567
▁tangy	-11568
▁igloos	-11569
▁sizzle	-11570
▁hairsty	-11571
▁miranda	-11572
▁scooted	-11573
▁shyness	-11574
▁threats	-11575
▁tougher	-11576
▁unscrew	-11577
▁drifting	-11578
▁mastered	-11579
▁gentleman	-11580
▁preferred	-11581
lina	-11582
zzle	-11583
▁roly	-11584
yellow	-11585
▁koala	-11586
behaved	-11587
brushes	-11588
tonight	-11589
▁kernel	-11590
▁mopped	-11591
▁carrier	-11592
▁lioness	-11593
▁needing	-11594
▁visible	-11595
▁beatrice	-11596
▁blessing	-11597
▁cactuses	-11598
▁demonstr	-11599
▁rattling	-11600
▁priscilla	-11601
▁perseverance	-11602
gle	-11603
ima	-11604
rrr	-11605
doll	-11606
crumb	-11607
iggie	-11608
irley	-11609
▁lacy	-11610
▁loaf	-11611
coffee	-11612
▁inser	-11613
▁kettle	-11614
▁reggie	-11615
▁sauces	-11616
▁streak	-11617
▁tidier	-11618
▁blouses	-11619
▁pouting	-11620
▁suitable	-11621
▁glimmered	-11622
▁photograp	-11623
▁reindeers	-11624
▁recommending	-11625
rub	-11626
ersa	-11627
gret	-11628
▁bay	-11629
▁jig	-11630
▁shi	-11631
candy	-11632
megan	-11633
power	-11634
snake	-11635
▁inqu	-11636
▁aaron	-11637
▁citiz	-11638
▁crows	-11639
▁wailed	-11640
▁waists	-11641
▁drummer	-11642
▁handled	-11643
▁somersa	-11644
charlotte	-11645
▁fanciest	-11646
▁disbelief	-11647
▁breadcrumb	-11648
▁experiments	-11649
▁impatiently	-11650
ham	-11651
▁ey	-11652
alia	-11653
arch	-11654
eric	-11655
fuel	-11656
▁cab	-11657
johny	-11658
owner	-11659
▁barb	-11660
auntie	-11661
▁bobbi	-11662
▁stacy	-11663
▁droopy	-11664
▁mopping	-11665
stretched	-11666
▁juggling	-11667
▁madeline	-11668
▁mermaids	-11669
▁octopuses	-11670
▁announcement	-11671
▁stubbornness	-11672
cco	-11673
gabby	-11674
liest	-11675
patty	-11676
▁stash	-11677
▁trous	-11678
▁unfor	-11679
▁overhe	-11680
▁capable	-11681
▁coaster	-11682
▁jingled	-11683
▁faithful	-11684
▁provides	-11685
▁waitress	-11686
▁gleefully	-11687
▁grumpiness	-11688
ask	-11689
abaa	-11690
▁cee	-11691
▁core	-11692
▁moss	-11693
▁sobs	-11694
▁areas	-11695
license	-11696
▁doughy	-11697
▁annabel	-11698
▁doorkno	-11699
▁whirled	-11700
▁dazzling	-11701
▁tornadoes	-11702
▁sheepishly	-11703
▁outstretched	-11704
▁photographer	-11705
tap	-11706
phil	-11707
ignor	-11708
plant	-11709
▁hopp	-11710
▁requ	-11711
daniel	-11712
jected	-11713
▁camps	-11714
▁dumps	-11715
alities	-11716
▁detail	-11717
▁lillie	-11718
▁tulips	-11719
▁closets	-11720
▁sibling	-11721
▁squeezy	-11722
▁drumming	-11723
▁trousers	-11724
cari	-11725
perf	-11726
zoey	-11727
chewy	-11728
eight	-11729
lenny	-11730
▁hens	-11731
▁mult	-11732
▁donny	-11733
▁peppy	-11734
▁pixie	-11735
▁ruins	-11736
▁sixty	-11737
squeeze	-11738
▁injury	-11739
▁longed	-11740
▁grunted	-11741
▁wriggle	-11742
▁cheetahs	-11743
▁slippers	-11744
▁dandelion	-11745
▁persisted	-11746
▁recognised	-11747
▁remarkable	-11748
▁compliments	-11749
▁.	-11750
?''	-11751
dead	-11752
oint	-11753
march	-11754
ricky	-11755
sized	-11756
▁karl	-11757
dinner	-11758
▁divid	-11759
▁ginny	-11760
▁glory	-11761
▁cassie	-11762
▁snappy	-11763
▁anchors	-11764
▁bullets	-11765
▁emptied	-11766
▁greener	-11767
▁insides	-11768
▁rounded	-11769
▁critters	-11770
▁isabelle	-11771
▁poisoned	-11772
▁sideways	-11773
▁unforget	-11774
▁windmill	-11775
▁squawking	-11776
▁thrilling	-11777
▁diligently	-11778
pain	-11779
pher	-11780
▁oaky	-11781
▁tutu	-11782
dragon	-11783
▁blues	-11784
▁kippy	-11785
▁snows	-11786
rebecca	-11787
▁noodle	-11788
▁youths	-11789
▁crabbie	-11790
▁shivers	-11791
surprised	-11792
▁sensible	-11793
▁colouring	-11794
▁moderation	-11795
▁summertime	-11796
▁cooperation	-11797
▁unforgettable	-11798
▁recommendations	-11799
ns	-11800
beef	-11801
roger	-11802
swing	-11803
▁croc	-11804
biggie	-11805
▁pawed	-11806
▁ponds	-11807
▁disres	-11808
▁philip	-11809
▁policy	-11810
▁tighten	-11811
▁directly	-11812
▁assistant	-11813
▁suggestions	-11814
mila	-11815
▁carp	-11816
▁mash	-11817
▁unra	-11818
▁bared	-11819
▁brief	-11820
▁plugs	-11821
brother	-11822
▁mixers	-11823
▁rushes	-11824
▁safest	-11825
▁chugged	-11826
▁diaries	-11827
▁outdoor	-11828
▁peeling	-11829
▁distress	-11830
▁attracted	-11831
▁obedience	-11832
▁recordings	-11833
▁roundabout	-11834
▁breadcrumbs	-11835
▁miraculously	-11836
tia	-11837
isha	-11838
▁gad	-11839
▁nug	-11840
ament	-11841
▁addy	-11842
▁cody	-11843
▁foil	-11844
▁marc	-11845
squeak	-11846
▁eerie	-11847
▁mollie	-11848
▁blended	-11849
▁suppose	-11850
▁coolness	-11851
▁doorknob	-11852
▁fastened	-11853
▁freckles	-11854
▁scribble	-11855
▁sledding	-11856
▁clambered	-11857
▁mechanics	-11858
▁squealing	-11859
▁lighthouse	-11860
▁paramedics	-11861
▁slithering	-11862
gia	-11863
lem	-11864
mma	-11865
rek	-11866
acey	-11867
gedy	-11868
judy	-11869
aling	-11870
smart	-11871
gracie	-11872
▁ambit	-11873
▁cleve	-11874
▁jazzy	-11875
▁plump	-11876
▁connie	-11877
▁draped	-11878
▁looped	-11879
▁guiding	-11880
▁shirley	-11881
▁quarrels	-11882
▁teammates	-11883
▁unplugged	-11884
▁meaningful	-11885
cats	-11886
▁rap	-11887
barky	-11888
▁gala	-11889
▁reas	-11890
gotcha	-11891
▁maple	-11892
▁slurp	-11893
▁snoop	-11894
ricanes	-11895
▁adored	-11896
▁bakers	-11897
▁barney	-11898
▁ferris	-11899
▁hooted	-11900
▁prized	-11901
▁volume	-11902
▁survived	-11903
▁gardeners	-11904
▁tiredness	-11905
▁approaching	-11906
▁trespassing	-11907
gged	-11908
iguel	-11909
jason	-11910
shall	-11911
▁lays	-11912
▁plea	-11913
▁snoo	-11914
▁buyer	-11915
▁drunk	-11916
▁pilly	-11917
▁spout	-11918
▁washer	-11919
fighting	-11920
ignorant	-11921
▁barbers	-11922
▁session	-11923
▁consider	-11924
▁croaking	-11925
▁landscap	-11926
▁smoothie	-11927
▁someplace	-11928
▁encourages	-11929
omi	-11930
▁ir	-11931
leaf	-11932
▁aly	-11933
frosty	-11934
▁alpha	-11935
william	-11936
▁eldest	-11937
▁bleated	-11938
▁pasture	-11939
▁shooter	-11940
▁shortly	-11941
▁dangling	-11942
▁imagines	-11943
▁construction	-11944
alie	-11945
dodo	-11946
raph	-11947
knock	-11948
organ	-11949
▁cole	-11950
▁emot	-11951
▁lego	-11952
▁pred	-11953
▁wary	-11954
lessly	-11955
▁beams	-11956
▁blaze	-11957
▁dents	-11958
▁sissy	-11959
healthy	-11960
▁clucky	-11961
▁frisky	-11962
▁splits	-11963
▁limping	-11964
everybody	-11965
▁campsite	-11966
▁emotions	-11967
▁marrying	-11968
▁searches	-11969
▁eagerness	-11970
▁landscapes	-11971
meg	-11972
left	-11973
lude	-11974
chess	-11975
eddie	-11976
judge	-11977
patch	-11978
▁imit	-11979
▁gizmo	-11980
▁mower	-11981
▁slows	-11982
success	-11983
▁baabaa	-11984
▁chuckle	-11985
▁console	-11986
▁feature	-11987
▁pathway	-11988
▁yogurts	-11989
annabelle	-11990
▁beekeeper	-11991
▁fingertips	-11992
▁speechless	-11993
▁whimpering	-11994
▁wonderland	-11995
pur	-11996
▁ome	-11997
▁vig	-11998
▁erra	-11999
▁swer	-12000
skelly	-12001
▁oohed	-12002
▁pingo	-12003
▁trudy	-12004
▁finder	-12005
▁fished	-12006
▁isabel	-12007
▁opener	-12008
▁passer	-12009
▁sheila	-12010
▁tigger	-12011
▁flicked	-12012
▁fortune	-12013
▁grasped	-12014
▁obvious	-12015
▁pleading	-12016
▁appearing	-12017
▁detectives	-12018
asha	-12019
send	-12020
▁jem	-12021
armed	-12022
until	-12023
▁nook	-12024
▁vain	-12025
ophones	-12026
▁lowest	-12027
▁parach	-12028
▁sylvia	-12029
▁reasons	-12030
▁richest	-12031
▁alphabet	-12032
▁menacing	-12033
▁woodland	-12034
▁ambulances	-12035
▁helplessly	-12036
▁permitting	-12037
▁underestimate	-12038
▁asse	-12039
▁cory	-12040
▁mika	-12041
▁prec	-12042
▁prey	-12043
▁wilt	-12044
cheers	-12045
▁grade	-12046
▁memor	-12047
▁torch	-12048
▁whips	-12049
▁beebee	-12050
▁callie	-12051
▁sundae	-12052
▁wisest	-12053
▁smeared	-12054
▁prisoner	-12055
▁farmhouse	-12056
▁hurricanes	-12057
▁comfortably	-12058
sn	-12059
itz	-12060
vis	-12061
elsa	-12062
izer	-12063
mona	-12064
stan	-12065
stone	-12066
touch	-12067
▁elli	-12068
▁gown	-12069
sister	-12070
wonder	-12071
▁garry	-12072
▁boldly	-12073
▁outsmar	-12074
▁springy	-12075
▁whimper	-12076
▁craziest	-12077
▁inserted	-12078
▁cigarette	-12079
'!	-12080
jax	-12081
bowl	-12082
aaaah	-12083
▁nala	-12084
▁aiden	-12085
▁curry	-12086
▁elves	-12087
▁latch	-12088
▁total	-12089
▁viole	-12090
▁badges	-12091
▁glance	-12092
▁outrun	-12093
▁conquer	-12094
▁georgie	-12095
▁whizzed	-12096
▁believes	-12097
▁crumbled	-12098
▁handfuls	-12099
▁speckled	-12100
▁stitching	-12101
▁measurements	-12102
ani	-12103
hug	-12104
van	-12105
nora	-12106
▁ari	-12107
▁coz	-12108
click	-12109
dough	-12110
etern	-12111
▁abra	-12112
▁germ	-12113
almost	-12114
▁cance	-12115
▁nikki	-12116
▁tacos	-12117
▁heeded	-12118
▁pauses	-12119
▁scraps	-12120
▁shoved	-12121
▁uneven	-12122
▁boredom	-12123
▁cockpit	-12124
▁melinda	-12125
▁trained	-12126
▁bustling	-12127
▁sprouted	-12128
▁stressed	-12129
▁sharpened	-12130
▁sprinkler	-12131
▁skateboard	-12132
▁somersault	-12133
aha	-12134
zzz	-12135
lete	-12136
vide	-12137
▁hal	-12138
mamma	-12139
▁brow	-12140
▁numb	-12141
▁etern	-12142
victory	-12143
▁bellow	-12144
▁tackle	-12145
▁whippy	-12146
▁divided	-12147
▁granddad	-12148
▁scatters	-12149
▁tricking	-12150
▁wildlife	-12151
▁longingly	-12152
bba	-12153
net	-12154
▁pi	-12155
helen	-12156
kevin	-12157
smile	-12158
▁dale	-12159
▁hula	-12160
▁sari	-12161
supply	-12162
▁danie	-12163
▁clicks	-12164
▁crafted	-12165
▁flushed	-12166
▁profess	-12167
▁shutting	-12168
▁smashing	-12169
▁upcoming	-12170
▁rainwater	-12171
mart	-12172
mers	-12173
pink	-12174
toed	-12175
▁arf	-12176
janey	-12177
▁cham	-12178
▁fang	-12179
▁jada	-12180
▁rung	-12181
▁agent	-12182
▁bongo	-12183
▁brist	-12184
▁diane	-12185
thunder	-12186
▁beaten	-12187
▁squigg	-12188
▁juggled	-12189
▁citizens	-12190
▁crumpled	-12191
▁scariest	-12192
▁calendars	-12193
▁ringmaster	-12194
blo	-12195
ahhh	-12196
bike	-12197
iana	-12198
salt	-12199
▁gur	-12200
pause	-12201
▁cowy	-12202
▁oval	-12203
▁virt	-12204
animal	-12205
▁alike	-12206
▁elisa	-12207
▁ramps	-12208
artment	-12209
▁behaves	-12210
▁sabrina	-12211
▁snuggly	-12212
▁tragedy	-12213
▁trimmed	-12214
▁cultures	-12215
dney	-12216
rude	-12217
▁vir	-12218
erald	-12219
▁jell	-12220
▁laps	-12221
ouches	-12222
shelly	-12223
▁occur	-12224
▁brandy	-12225
▁jiggle	-12226
▁sawing	-12227
▁recently	-12228
▁splinter	-12229
▁steadily	-12230
▁apologizing	-12231
zap	-12232
ller	-12233
▁huh	-12234
ander	-12235
icity	-12236
▁brat	-12237
▁brady	-12238
▁farmy	-12239
▁produ	-12240
▁crocky	-12241
▁parcel	-12242
▁jeffrey	-12243
▁scarlet	-12244
▁shoebox	-12245
▁spelled	-12246
▁variety	-12247
▁frighten	-12248
▁villages	-12249
▁arranging	-12250
▁overheard	-12251
▁disrespect	-12252
▁outsmarted	-12253
▁microphones	-12254
▁recognizing	-12255
tu	-12256
brr	-12257
rid	-12258
tri	-12259
buck	-12260
mindy	-12261
rufus	-12262
udges	-12263
louise	-12264
▁layed	-12265
▁mitch	-12266
▁plums	-12267
▁punch	-12268
▁repay	-12269
▁roary	-12270
include	-12271
▁choppy	-12272
▁festiv	-12273
▁finest	-12274
▁arrival	-12275
▁mumbled	-12276
▁farmyard	-12277
▁pedalling	-12278
▁policemen	-12279
▁billboards	-12280
▁basketballs	-12281
▁disturbance	-12282
fold	-12283
gary	-12284
navy	-12285
rich	-12286
rosa	-12287
▁fid	-12288
▁mow	-12289
cheap	-12290
gerry	-12291
ippee	-12292
▁joys	-12293
▁poll	-12294
▁booms	-12295
▁crisp	-12296
quickly	-12297
kerchief	-12298
▁belinda	-12299
▁faucets	-12300
▁immense	-12301
▁nuggets	-12302
▁punched	-12303
▁wetness	-12304
nightmare	-12305
▁collector	-12306
▁ignorance	-12307
▁underwear	-12308
▁profession	-12309
▁handkerchief	-12310
iti	-12311
brow	-12312
dina	-12313
elie	-12314
sour	-12315
vere	-12316
ively	-12317
ooped	-12318
ucted	-12319
▁coax	-12320
▁dean	-12321
▁harb	-12322
banana	-12323
▁south	-12324
▁trina	-12325
▁attend	-12326
▁evenly	-12327
▁porcup	-12328
▁eyebrow	-12329
▁roasted	-12330
▁various	-12331
▁swallows	-12332
▁splattered	-12333
▁zigzagging	-12334
eee	-12335
sel	-12336
cuff	-12337
robo	-12338
seat	-12339
rence	-12340
▁brim	-12341
▁cece	-12342
angles	-12343
things	-12344
▁const	-12345
▁flesh	-12346
▁rocco	-12347
▁sawed	-12348
pitched	-12349
▁madder	-12350
▁pumped	-12351
▁sensed	-12352
▁produce	-12353
▁handcuff	-12354
▁matchbox	-12355
▁replying	-12356
▁gentlemen	-12357
▁professor	-12358
▁strangely	-12359
sea	-12360
exce	-12361
herb	-12362
▁sus	-12363
tessa	-12364
▁frol	-12365
▁gran	-12366
▁hasn	-12367
▁kari	-12368
▁lula	-12369
teller	-12370
▁baaed	-12371
▁clasp	-12372
▁ditch	-12373
▁exist	-12374
▁maths	-12375
▁splat	-12376
▁mooing	-12377
▁newest	-12378
▁rounds	-12379
▁territ	-12380
▁tosses	-12381
marriage	-12382
▁failure	-12383
▁sparked	-12384
▁bristles	-12385
▁fishbowl	-12386
▁shoelaces	-12387
pew	-12388
roy	-12389
joke	-12390
liza	-12391
pray	-12392
▁hee	-12393
▁zac	-12394
books	-12395
sasha	-12396
willy	-12397
▁cack	-12398
▁pure	-12399
▁maggy	-12400
▁posed	-12401
▁treet	-12402
▁cheeky	-12403
▁golfer	-12404
▁juices	-12405
▁ninety	-12406
▁tiptoe	-12407
▁virtue	-12408
▁dorothy	-12409
▁kernels	-12410
▁massive	-12411
▁toddled	-12412
▁engineer	-12413
▁rosemary	-12414
▁encounter	-12415
▁replacement	-12416
omp	-12417
eliz	-12418
ethe	-12419
unts	-12420
▁cav	-12421
▁dew	-12422
slide	-12423
▁amie	-12424
▁dart	-12425
muffin	-12426
▁shove	-12427
▁tourn	-12428
▁waggy	-12429
ization	-12430
sweetie	-12431
▁camels	-12432
▁fellow	-12433
▁omelet	-12434
▁sugary	-12435
▁sulked	-12436
▁battles	-12437
▁coldest	-12438
▁tipping	-12439
▁cowgirls	-12440
▁evenings	-12441
▁incident	-12442
▁pressure	-12443
▁strutted	-12444
▁waddling	-12445
▁flickered	-12446
▁footballs	-12447
▁realising	-12448
▁seatbelts	-12449
▁boundaries	-12450
chy	-12451
lad	-12452
bess	-12453
fake	-12454
antic	-12455
paper	-12456
riley	-12457
super	-12458
▁beck	-12459
▁pork	-12460
▁quen	-12461
▁vows	-12462
▁carty	-12463
▁fiery	-12464
▁girly	-12465
▁limit	-12466
▁piney	-12467
▁slope	-12468
perfect	-12469
▁judged	-12470
▁slippy	-12471
▁english	-12472
▁harbour	-12473
▁obeying	-12474
▁seventy	-12475
▁captains	-12476
▁dashboard	-12477
hur	-12478
▁om	-12479
brian	-12480
cling	-12481
illip	-12482
ordan	-12483
▁auto	-12484
▁ling	-12485
▁casey	-12486
▁cools	-12487
▁franc	-12488
▁kimmy	-12489
▁mario	-12490
▁meena	-12491
▁swarm	-12492
▁veils	-12493
freddie	-12494
▁connor	-12495
▁neighs	-12496
lemonade	-12497
▁buttery	-12498
▁escapes	-12499
▁itching	-12500
▁pretzel	-12501
▁slowing	-12502
▁swingset	-12503
▁fortunate	-12504
▁porcupine	-12505
▁smoothness	-12506
awk	-12507
sug	-12508
▁gig	-12509
▁ven	-12510
black	-12511
going	-12512
▁phra	-12513
▁benji	-12514
▁hazel	-12515
▁hiked	-12516
ailable	-12517
▁alarms	-12518
▁eighty	-12519
▁latest	-12520
▁nailed	-12521
▁supper	-12522
▁bedside	-12523
▁illness	-12524
▁untwist	-12525
delicious	-12526
▁chambers	-12527
▁midnight	-12528
▁smoothed	-12529
▁speakers	-12530
▁judgement	-12531
▁milkshake	-12532
▁extinguisher	-12533
ino	-12534
mus	-12535
acam	-12536
kiss	-12537
mole	-12538
quiz	-12539
▁jed	-12540
smith	-12541
▁lili	-12542
▁ident	-12543
▁mercy	-12544
▁polit	-12545
acamole	-12546
▁beings	-12547
▁miguel	-12548
▁purses	-12549
▁terrif	-12550
▁darkest	-12551
▁scanned	-12552
▁twinkly	-12553
▁witness	-12554
▁avoiding	-12555
▁hesitate	-12556
▁squashed	-12557
▁tinkling	-12558
▁chessboard	-12559
best	-12560
coal	-12561
gain	-12562
hate	-12563
loop	-12564
suit	-12565
angel	-12566
arium	-12567
istic	-12568
▁luca	-12569
▁trad	-12570
search	-12571
▁hooty	-12572
▁weave	-12573
▁cheery	-12574
▁manner	-12575
▁scenes	-12576
▁unknow	-12577
▁weakly	-12578
▁applied	-12579
▁spectac	-12580
▁ashtrays	-12581
▁coconuts	-12582
▁fearless	-12583
▁markings	-12584
▁guacamole	-12585
▁rainstorm	-12586
▁territory	-12587
▁intentions	-12588
▁hummingbird	-12589
shr	-12590
gies	-12591
gold	-12592
sher	-12593
bingo	-12594
▁owie	-12595
irteen	-12596
▁award	-12597
▁lucie	-12598
▁rocko	-12599
▁locket	-12600
▁makers	-12601
▁mattie	-12602
▁proven	-12603
▁sharon	-12604
▁squirm	-12605
treasure	-12606
▁grilled	-12607
▁savored	-12608
▁shifted	-12609
▁calmness	-12610
▁flitting	-12611
▁furthest	-12612
▁scowling	-12613
▁reception	-12614
▁spectacular	-12615
?'"	-12616
fle	-12617
gum	-12618
oyo	-12619
stu	-12620
ific	-12621
▁rev	-12622
relax	-12623
▁crop	-12624
▁vera	-12625
bitter	-12626
eteria	-12627
orange	-12628
ushing	-12629
▁derek	-12630
▁kilos	-12631
▁pinec	-12632
▁jewell	-12633
▁tailor	-12634
anything	-12635
▁fancier	-12636
▁gadgets	-12637
▁seesaws	-12638
▁doghouse	-12639
▁predator	-12640
▁stamping	-12641
sweetheart	-12642
▁unknowingly	-12643
alan	-12644
imid	-12645
lene	-12646
real	-12647
crazy	-12648
space	-12649
innied	-12650
yippee	-12651
▁frees	-12652
▁micky	-12653
▁virus	-12654
isitive	-12655
▁cooing	-12656
▁mostly	-12657
▁spiral	-12658
▁ticked	-12659
▁intimid	-12660
▁keepers	-12661
excellent	-12662
▁document	-12663
▁explodes	-12664
▁features	-12665
▁passerby	-12666
▁stinging	-12667
▁whinnied	-12668
▁cafeteria	-12669
▁mightiest	-12670
▁politeness	-12671
▁inquisitive	-12672
ks	-12673
fix	-12674
vio	-12675
yee	-12676
hmmm	-12677
kind	-12678
nate	-12679
umbo	-12680
april	-12681
blast	-12682
boing	-12683
tyler	-12684
▁flit	-12685
▁icic	-12686
▁recy	-12687
▁saws	-12688
▁yogi	-12689
eating	-12690
▁bitty	-12691
▁sully	-12692
▁woofy	-12693
▁archer	-12694
▁coward	-12695
▁duckie	-12696
▁strive	-12697
▁anthony	-12698
▁earring	-12699
▁pounded	-12700
▁pyjamas	-12701
▁schools	-12702
▁stormed	-12703
▁watchful	-12704
▁wrinkles	-12705
▁described	-12706
▁medicines	-12707
▁nighttime	-12708
▁parachute	-12709
▁relationships	-12710
cro	-12711
hee	-12712
nap	-12713
gery	-12714
▁aqu	-12715
shark	-12716
stage	-12717
▁pity	-12718
▁jessy	-12719
▁louis	-12720
▁ashore	-12721
▁cannon	-12722
▁drains	-12723
▁talons	-12724
▁trucko	-12725
▁comment	-12726
▁fabrics	-12727
▁truckie	-12728
▁wheeled	-12729
▁pondered	-12730
▁hairstyle	-12731
▁haircutter	-12732
▁daydreaming	-12733
▁threatening	-12734
▁professional	-12735
▁disrespectful	-12736
cars	-12737
crab	-12738
food	-12739
oses	-12740
woah	-12741
owled	-12742
▁macy	-12743
▁publ	-12744
▁refe	-12745
▁adver	-12746
▁lasts	-12747
▁sales	-12748
ingshot	-12749
▁aiming	-12750
▁builds	-12751
▁soothe	-12752
penelope	-12753
▁concern	-12754
▁marches	-12755
available	-12756
▁eternity	-12757
▁postcard	-12758
▁breakable	-12759
▁bumblebee	-12760
▁qualities	-12761
▁sentences	-12762
▁shrugging	-12763
▁slingshot	-12764
▁swordfish	-12765
▁chalkboard	-12766
kie	-12767
mop	-12768
shi	-12769
deaf	-12770
rett	-12771
rita	-12772
▁bid	-12773
▁lea	-12774
beaky	-12775
faced	-12776
paula	-12777
tammy	-12778
▁dise	-12779
▁educ	-12780
▁subt	-12781
▁vans	-12782
▁reeds	-12783
▁shrie	-12784
▁title	-12785
▁tracy	-12786
▁growly	-12787
▁intern	-12788
▁stuart	-12789
▁tingly	-12790
▁appoint	-12791
▁brightness	-12792
▁tournament	-12793
▁fascination	-12794
▁reflections	-12795
jet	-12796
lin	-12797
flop	-12798
ilia	-12799
wood	-12800
▁aah	-12801
▁fal	-12802
circle	-12803
ptical	-12804
stream	-12805
▁bolts	-12806
▁dread	-12807
▁giddy	-12808
▁marla	-12809
▁tuffy	-12810
htaking	-12811
▁blacky	-12812
▁rhymes	-12813
▁steamy	-12814
▁waddle	-12815
▁blackie	-12816
▁butcher	-12817
▁dislike	-12818
▁payment	-12819
▁seaside	-12820
▁chugging	-12821
▁slithers	-12822
▁strongly	-12823
▁supports	-12824
▁thirteen	-12825
dictionary	-12826
▁exception	-12827
▁heartbeat	-12828
▁priceless	-12829
▁complaints	-12830
▁breathtaking	-12831
▁transformation	-12832
fel	-12833
lic	-12834
pill	-12835
sugar	-12836
▁role	-12837
▁thor	-12838
▁overc	-12839
▁vinny	-12840
▁engulf	-12841
▁forces	-12842
▁hermit	-12843
▁leaked	-12844
▁dinners	-12845
▁ripping	-12846
▁slurped	-12847
▁gigantic	-12848
▁perspect	-12849
▁swimmers	-12850
▁unharmed	-12851
▁sprinkling	-12852
▁rhinoceroses	-12853
kne	-12854
sks	-12855
esky	-12856
sues	-12857
▁mya	-12858
▁spa	-12859
serve	-12860
terry	-12861
▁lana	-12862
winter	-12863
▁assem	-12864
▁await	-12865
▁blake	-12866
▁pesky	-12867
keeping	-12868
matilda	-12869
popcorn	-12870
▁julian	-12871
▁rulers	-12872
▁selves	-12873
ustrated	-12874
▁cooling	-12875
▁intense	-12876
▁natalie	-12877
▁yellows	-12878
▁adjusted	-12879
▁flooding	-12880
▁gestured	-12881
▁password	-12882
▁whizzing	-12883
▁carpenter	-12884
▁dreamland	-12885
▁volunteer	-12886
▁convincing	-12887
▁reflecting	-12888
▁personality	-12889
▁supervision	-12890
fre	-12891
hoot	-12892
iffy	-12893
jose	-12894
neck	-12895
tale	-12896
▁hyd	-12897
▁non	-12898
▁nois	-12899
▁yeah	-12900
grumpy	-12901
ladies	-12902
▁baldy	-12903
▁entry	-12904
missile	-12905
▁chairy	-12906
▁easter	-12907
▁growth	-12908
▁hunted	-12909
▁mateys	-12910
▁neater	-12911
▁retrie	-12912
▁staffs	-12913
▁fainted	-12914
▁merrily	-12915
▁scaredy	-12916
▁toppled	-12917
shadowing	-12918
▁blossoms	-12919
▁internet	-12920
▁cleverest	-12921
▁expressing	-12922
▁mentioning	-12923
ua	-12924
gart	-12925
oooo	-12926
teen	-12927
wolf	-12928
▁oar	-12929
mumma	-12930
▁eddy	-12931
▁lyla	-12932
▁pats	-12933
▁whom	-12934
garten	-12935
▁bacon	-12936
▁drips	-12937
▁pools	-12938
▁pyram	-12939
▁rafts	-12940
amazing	-12941
▁nicole	-12942
▁peaked	-12943
▁planks	-12944
▁techni	-12945
▁flowery	-12946
▁referee	-12947
▁require	-12948
▁sharper	-12949
▁shimmer	-12950
▁glorious	-12951
▁outsmart	-12952
▁drumsticks	-12953
▁storyteller	-12954
foreshadowing	-12955
▁celebrations	-12956
bat	-12957
ugh	-12958
broc	-12959
glad	-12960
rawr	-12961
resa	-12962
tain	-12963
▁fry	-12964
firew	-12965
janet	-12966
▁eggy	-12967
▁wars	-12968
bobbie	-12969
martin	-12970
▁glint	-12971
▁mazes	-12972
▁amelie	-12973
▁garlic	-12974
▁pinned	-12975
▁printy	-12976
▁snored	-12977
▁sydney	-12978
▁teresa	-12979
firework	-12980
unfreeze	-12981
▁longing	-12982
▁smudged	-12983
▁puckered	-12984
▁tradition	-12985
fa	-12986
bea	-12987
las	-12988
▁ul	-12989
?!".	-12990
home	-12991
meet	-12992
stem	-12993
wheee	-12994
▁lane	-12995
▁mack	-12996
▁luisa	-12997
▁smirk	-12998
▁snout	-12999
iration	-13000
tuesday	-13001
▁carley	-13002
▁poorly	-13003
▁sliced	-13004
▁sunbat	-13005
▁untidy	-13006
▁patched	-13007
▁potions	-13008
▁shepher	-13009
▁observes	-13010
frustrated	-13011
▁fountains	-13012
▁hamburger	-13013
▁demonstrated	-13014
ura	-13015
yet	-13016
agon	-13017
vine	-13018
▁lord	-13019
▁yoyo	-13020
rolled	-13021
worthy	-13022
▁bales	-13023
▁elena	-13024
▁fives	-13025
▁pests	-13026
▁rests	-13027
▁shuts	-13028
▁tenth	-13029
▁divide	-13030
▁floods	-13031
▁jigsaw	-13032
▁nuzzle	-13033
▁public	-13034
▁typing	-13035
broccoli	-13036
▁bonfire	-13037
▁partied	-13038
▁swished	-13039
▁twitching	-13040
▁pleasantly	-13041
▁appearances	-13042
ius	-13043
zer	-13044
ilah	-13045
jean	-13046
mild	-13047
past	-13048
▁tan	-13049
▁zed	-13050
avery	-13051
igher	-13052
raise	-13053
sound	-13054
▁mant	-13055
▁olds	-13056
ginger	-13057
stance	-13058
vation	-13059
▁della	-13060
▁lewis	-13061
▁tanya	-13062
▁ultim	-13063
▁backup	-13064
▁glossy	-13065
▁lapped	-13066
▁rubble	-13067
▁smoked	-13068
finished	-13069
▁casting	-13070
▁crevice	-13071
▁errands	-13072
▁heavens	-13073
▁hydrant	-13074
▁rattled	-13075
▁seating	-13076
▁toilets	-13077
▁weaving	-13078
▁eyebrows	-13079
▁felicity	-13080
▁fourteen	-13081
▁launched	-13082
▁savannah	-13083
▁scarlett	-13084
▁shepherd	-13085
▁interrupt	-13086
▁operations	-13087
▁triumphant	-13088
▁accomplishments	-13089
nas	-13090
chug	-13091
ffod	-13092
join	-13093
orig	-13094
saur	-13095
usty	-13096
▁zag	-13097
atops	-13098
kneel	-13099
onica	-13100
party	-13101
score	-13102
vicky	-13103
wooly	-13104
▁oily	-13105
higher	-13106
▁beady	-13107
▁drool	-13108
▁fangs	-13109
▁glare	-13110
▁keith	-13111
▁laila	-13112
johnnie	-13113
▁daffod	-13114
▁pierre	-13115
▁rudely	-13116
▁skated	-13117
ceratops	-13118
original	-13119
▁bundled	-13120
▁disease	-13121
▁erasing	-13122
▁soothed	-13123
▁stabbed	-13124
▁surgery	-13125
▁figuring	-13126
▁melodies	-13127
▁overcame	-13128
▁rummaged	-13129
▁education	-13130
▁souvenirs	-13131
▁containers	-13132
▁reassuringly	-13133
fill	-13134
waff	-13135
weee	-13136
▁hed	-13137
carla	-13138
store	-13139
tiger	-13140
▁cure	-13141
▁fawn	-13142
▁gods	-13143
▁lure	-13144
▁oaty	-13145
▁tamb	-13146
▁tons	-13147
▁tugs	-13148
▁unne	-13149
bonnie	-13150
spider	-13151
▁molds	-13152
▁scout	-13153
▁unity	-13154
▁vigor	-13155
measure	-13156
▁canada	-13157
▁stingy	-13158
▁tender	-13159
▁bossing	-13160
▁justice	-13161
▁lasting	-13162
▁overall	-13163
▁returns	-13164
▁seeming	-13165
▁whirred	-13166
▁shrieked	-13167
▁treating	-13168
▁continues	-13169
▁housework	-13170
▁retrieved	-13171
▁apologizes	-13172
▁kindergarten	-13173
yo	-13174
lay	-13175
rop	-13176
greg	-13177
dened	-13178
fruit	-13179
merry	-13180
train	-13181
▁diet	-13182
▁duty	-13183
▁oint	-13184
▁yolk	-13185
bulous	-13186
circus	-13187
ocious	-13188
rapist	-13189
sandra	-13190
▁cacky	-13191
▁catie	-13192
▁naomi	-13193
▁nudge	-13194
▁porky	-13195
▁canary	-13196
▁bandana	-13197
▁boatman	-13198
▁pauline	-13199
▁tambour	-13200
▁clarissa	-13201
▁extended	-13202
▁hungrily	-13203
▁therapist	-13204
▁dandelions	-13205
▁disobeying	-13206
▁instructed	-13207
▁appointment	-13208
yd	-13209
urs	-13210
▁ola	-13211
bubba	-13212
thump	-13213
▁lynn	-13214
▁remo	-13215
olivia	-13216
squawk	-13217
▁goldy	-13218
▁grunt	-13219
▁shimm	-13220
▁token	-13221
ittered	-13222
jasmine	-13223
melissa	-13224
▁advert	-13225
▁ensure	-13226
▁franny	-13227
▁jordan	-13228
▁parlor	-13229
▁stacey	-13230
▁blender	-13231
▁fighter	-13232
▁rancher	-13233
▁polishes	-13234
▁subtract	-13235
▁protested	-13236
▁reflected	-13237
▁unhealthy	-13238
▁zigzagged	-13239
▁satisfying	-13240
▁brilliantly	-13241
▁combination	-13242
▁helpfulness	-13243
▁performances	-13244
dor	-13245
igo	-13246
viv	-13247
heel	-13248
milk	-13249
save	-13250
umin	-13251
piggy	-13252
raven	-13253
small	-13254
ucers	-13255
umped	-13256
▁bron	-13257
▁burp	-13258
▁moos	-13259
▁skye	-13260
violet	-13261
▁caret	-13262
▁forms	-13263
▁gazes	-13264
▁inner	-13265
▁shawn	-13266
▁whirl	-13267
theless	-13268
▁armour	-13269
▁choked	-13270
▁grades	-13271
▁receip	-13272
▁regard	-13273
▁adopted	-13274
▁drained	-13275
▁lunches	-13276
▁puffing	-13277
▁rowboat	-13278
▁saucers	-13279
▁shopped	-13280
▁antennas	-13281
▁devoured	-13282
▁fabulous	-13283
▁honestly	-13284
▁occurred	-13285
▁ointment	-13286
▁produced	-13287
▁addressed	-13288
▁attempted	-13289
▁handcuffs	-13290
▁unscrewed	-13291
▁stubbornly	-13292
▁telephones	-13293
▁generations	-13294
▁inspiration	-13295
▁triceratops	-13296
exp	-13297
aris	-13298
done	-13299
stal	-13300
▁gut	-13301
barry	-13302
count	-13303
jolly	-13304
onted	-13305
▁wren	-13306
carrot	-13307
▁bombs	-13308
▁perry	-13309
tweetie	-13310
▁crowds	-13311
▁healer	-13312
▁likely	-13313
▁piglet	-13314
stealing	-13315
▁gumball	-13316
▁origami	-13317
▁permits	-13318
▁steeper	-13319
▁wildest	-13320
▁controls	-13321
▁crunched	-13322
▁decrease	-13323
▁engulfed	-13324
▁fairness	-13325
▁flagpole	-13326
▁tweeting	-13327
▁apologise	-13328
▁briefcase	-13329
▁untouched	-13330
▁washcloth	-13331
▁relaxation	-13332
▁preparation	-13333
▁responsibly	-13334
!!"	-13335
rea	-13336
▁ox	-13337
fork	-13338
imet	-13339
inch	-13340
itor	-13341
sign	-13342
brave	-13343
dolls	-13344
pleas	-13345
vable	-13346
▁chad	-13347
▁swum	-13348
▁zane	-13349
ogetic	-13350
▁ached	-13351
▁soary	-13352
▁stamm	-13353
▁stock	-13354
▁client	-13355
▁grouch	-13356
▁steals	-13357
▁system	-13358
▁wilson	-13359
▁advised	-13360
▁dipping	-13361
▁harshly	-13362
▁unpleas	-13363
▁connects	-13364
▁disturbs	-13365
▁stranded	-13366
▁tattered	-13367
▁trotting	-13368
successful	-13369
▁elsewhere	-13370
▁reluctant	-13371
▁shortcuts	-13372
▁apologetic	-13373
▁confronted	-13374
▁impatience	-13375
▁safekeeping	-13376
▁unnecessary	-13377
!?"	-13378
oko	-13379
rol	-13380
▁"'	-13381
aves	-13382
draw	-13383
jenn	-13384
jere	-13385
▁pod	-13386
flora	-13387
money	-13388
tails	-13389
xteen	-13390
▁bale	-13391
▁caty	-13392
▁leon	-13393
▁skid	-13394
▁weir	-13395
minnie	-13396
resist	-13397
saurus	-13398
▁alina	-13399
▁gramp	-13400
atively	-13401
▁accord	-13402
▁allows	-13403
▁grills	-13404
▁plunge	-13405
▁swiped	-13406
▁toucan	-13407
▁aquarium	-13408
▁centimet	-13409
▁kickball	-13410
▁showered	-13411
▁slurping	-13412
▁spiciest	-13413
▁belonging	-13414
▁ferocious	-13415
▁persevered	-13416
▁recognizes	-13417
▁spaceships	-13418
▁raspberries	-13419
▁trustworthy	-13420
▁appreciating	-13421
▁receptionist	-13422
gir	-13423
hank	-13424
poof	-13425
rory	-13426
▁mal	-13427
fairy	-13428
uster	-13429
whale	-13430
▁dani	-13431
ancing	-13432
apples	-13433
wheeee	-13434
▁drier	-13435
▁leila	-13436
▁prefe	-13437
▁sonia	-13438
▁spool	-13439
▁stink	-13440
captain	-13441
▁costly	-13442
▁doomed	-13443
▁elated	-13444
▁hooray	-13445
▁raging	-13446
▁unfort	-13447
patience	-13448
▁cradled	-13449
▁fossils	-13450
▁francis	-13451
▁onboard	-13452
▁preside	-13453
▁prouder	-13454
▁receipt	-13455
▁topping	-13456
jellyfish	-13457
▁cleverly	-13458
▁darkened	-13459
▁fetching	-13460
▁fragrant	-13461
▁lightest	-13462
▁savoring	-13463
▁affection	-13464
▁eachother	-13465
▁festivals	-13466
▁delicately	-13467
▁department	-13468
▁unpleasant	-13469
▁vigorously	-13470
▁entertained	-13471
izi	-13472
lan	-13473
wal	-13474
gant	-13475
noah	-13476
reve	-13477
titi	-13478
peggy	-13479
unite	-13480
▁evan	-13481
▁heap	-13482
▁sews	-13483
▁thaw	-13484
ilizer	-13485
rences	-13486
rocket	-13487
▁bucky	-13488
▁crest	-13489
▁cuppy	-13490
▁purry	-13491
▁retri	-13492
tasting	-13493
▁essent	-13494
▁former	-13495
▁oinked	-13496
▁racket	-13497
▁saturn	-13498
▁dribble	-13499
▁orderly	-13500
▁pausing	-13501
▁peddled	-13502
▁tucking	-13503
▁unravel	-13504
▁wriggly	-13505
▁bellowed	-13506
▁clucking	-13507
▁goldfish	-13508
▁greenest	-13509
▁caretaker	-13510
▁depending	-13511
▁stammered	-13512
▁rectangles	-13513
▁sharpening	-13514
ico	-13515
cici	-13516
dley	-13517
dong	-13518
kara	-13519
rist	-13520
taxi	-13521
▁gag	-13522
idden	-13523
owers	-13524
spoon	-13525
zebra	-13526
▁eyel	-13527
▁fame	-13528
▁snor	-13529
months	-13530
person	-13531
reveal	-13532
▁bravo	-13533
▁compy	-13534
▁joyce	-13535
▁jumbo	-13536
▁mould	-13537
▁paddy	-13538
▁pumpy	-13539
forgive	-13540
renched	-13541
ughters	-13542
▁brushy	-13543
▁elliot	-13544
▁phrase	-13545
▁ripple	-13546
▁sprite	-13547
▁greenie	-13548
▁imitate	-13549
▁pranced	-13550
▁racecar	-13551
▁skilled	-13552
▁slowest	-13553
▁speeded	-13554
▁throats	-13555
expensive	-13556
▁attaches	-13557
▁cheapest	-13558
▁lancelot	-13559
▁arguments	-13560
▁cartwheel	-13561
▁essential	-13562
▁clumsiness	-13563
▁improvement	-13564
▁preferences	-13565
▁somersaults	-13566
zi	-13567
arf	-13568
bal	-13569
han	-13570
und	-13571
nold	-13572
▁lin	-13573
gemma	-13574
whate	-13575
white	-13576
▁elmo	-13577
▁lala	-13578
▁oops	-13579
▁pegs	-13580
▁pulp	-13581
ricate	-13582
udging	-13583
▁broad	-13584
▁cargo	-13585
▁crush	-13586
▁knead	-13587
▁shrub	-13588
hearing	-13589
▁basics	-13590
▁batted	-13591
▁chalky	-13592
▁poodle	-13593
▁spoils	-13594
▁stuffy	-13595
whatever	-13596
▁daytime	-13597
▁judging	-13598
▁knitted	-13599
▁recover	-13600
▁regrets	-13601
▁sixteen	-13602
▁brownies	-13603
▁headband	-13604
▁prickles	-13605
▁saddened	-13606
▁towering	-13607
everywhere	-13608
▁knowingly	-13609
▁snowstorm	-13610
▁screeching	-13611
kai	-13612
▁ll	-13613
iped	-13614
nuts	-13615
otic	-13616
road	-13617
sell	-13618
▁seb	-13619
bread	-13620
elsie	-13621
heidi	-13622
josie	-13623
write	-13624
▁evie	-13625
▁init	-13626
andrew	-13627
blinky	-13628
micals	-13629
parrot	-13630
spread	-13631
willow	-13632
▁tusks	-13633
▁unfro	-13634
replace	-13635
▁browny	-13636
▁delays	-13637
▁fatter	-13638
▁gerald	-13639
▁piling	-13640
▁server	-13641
sunshine	-13642
▁banners	-13643
▁phillip	-13644
▁program	-13645
▁rounder	-13646
▁drenched	-13647
▁drooping	-13648
▁fashions	-13649
▁possibly	-13650
▁chemicals	-13651
▁clubhouse	-13652
▁intricate	-13653
▁flickering	-13654
▁thundering	-13655
▁superpowers	-13656
▁concentration	-13657
soap	-13658
▁cds	-13659
▁nad	-13660
ropri	-13661
▁buns	-13662
▁chel	-13663
▁july	-13664
▁maia	-13665
astian	-13666
celery	-13667
▁flexi	-13668
▁nappy	-13669
▁yeast	-13670
request	-13671
▁braked	-13672
▁framed	-13673
▁herbie	-13674
▁marian	-13675
▁toasty	-13676
▁unbuck	-13677
graceful	-13678
▁beavers	-13679
▁blister	-13680
▁slumped	-13681
▁stinger	-13682
▁wallets	-13683
▁commands	-13684
▁research	-13685
▁strapped	-13686
▁treetops	-13687
▁president	-13688
▁recycling	-13689
▁blacksmith	-13690
▁overcoming	-13691
▁hospitality	-13692
▁paintbrushes	-13693
bulb	-13694
call	-13695
leah	-13696
lyde	-13697
mara	-13698
mper	-13699
peep	-13700
turt	-13701
yawn	-13702
▁gil	-13703
▁pul	-13704
aters	-13705
bally	-13706
group	-13707
randy	-13708
▁arch	-13709
▁eyed	-13710
▁heed	-13711
▁lori	-13712
▁olaf	-13713
▁sher	-13714
▁vers	-13715
myster	-13716
purple	-13717
▁elise	-13718
▁elmer	-13719
▁kiddo	-13720
▁chatty	-13721
▁corals	-13722
▁denise	-13723
▁beaches	-13724
▁campers	-13725
▁involve	-13726
▁muffled	-13727
▁spooned	-13728
▁tissues	-13729
▁pigtails	-13730
▁previous	-13731
▁snacking	-13732
▁cancelled	-13733
▁sparklers	-13734
▁trumpeted	-13735
▁tambourine	-13736
▁difficulties	-13737
rd	-13738
▁ew	-13739
bath	-13740
half	-13741
lady	-13742
▁pia	-13743
▁rae	-13744
▁sap	-13745
athet	-13746
known	-13747
lucas	-13748
poles	-13749
press	-13750
tyard	-13751
zippy	-13752
▁chor	-13753
▁jogg	-13754
▁ping	-13755
▁rino	-13756
▁witn	-13757
elines	-13758
sparky	-13759
▁angus	-13760
▁apply	-13761
▁haley	-13762
▁hilar	-13763
▁inchy	-13764
▁seaty	-13765
▁shack	-13766
▁trink	-13767
matthew	-13768
▁croiss	-13769
▁hamper	-13770
▁nozzle	-13771
▁reeled	-13772
▁amounts	-13773
▁safaris	-13774
▁sillier	-13775
spaghetti	-13776
▁confront	-13777
▁dejected	-13778
▁practise	-13779
▁reporter	-13780
▁swooping	-13781
▁classmate	-13782
▁hilarious	-13783
▁playmates	-13784
▁sidelines	-13785
▁foolishness	-13786
exam	-13787
gwen	-13788
kang	-13789
shhh	-13790
wild	-13791
eliza	-13792
kenny	-13793
▁kale	-13794
▁link	-13795
▁mari	-13796
▁rand	-13797
chairs	-13798
kelsey	-13799
shiver	-13800
sounds	-13801
steven	-13802
▁curvy	-13803
▁grind	-13804
▁jacks	-13805
▁kylie	-13806
▁ladle	-13807
giraffe	-13808
▁awoken	-13809
▁bumper	-13810
▁forked	-13811
▁frilly	-13812
▁hedges	-13813
▁holder	-13814
▁hootie	-13815
▁tranqu	-13816
▁crazier	-13817
▁fluffed	-13818
▁jenkins	-13819
▁appropri	-13820
▁grumpier	-13821
▁handling	-13822
▁hideaway	-13823
▁massaged	-13824
▁travelers	-13825
▁barbershop	-13826
▁unfinished	-13827
▁bookshelves	-13828
▁perspective	-13829
▁unexpectedly	-13830
ola	-13831
yah	-13832
yep	-13833
lant	-13834
melt	-13835
▁cru	-13836
▁nav	-13837
azing	-13838
carly	-13839
carol	-13840
class	-13841
ipede	-13842
▁plop	-13843
jeremy	-13844
rystal	-13845
struck	-13846
▁cheep	-13847
▁fried	-13848
▁puffs	-13849
▁swore	-13850
lantern	-13851
stanley	-13852
writing	-13853
▁buzzer	-13854
▁fitted	-13855
▁funnel	-13856
▁joshua	-13857
▁marvin	-13858
▁splish	-13859
reliable	-13860
scissors	-13861
▁caboose	-13862
▁depends	-13863
▁reveals	-13864
▁stooped	-13865
▁bouquets	-13866
▁jingling	-13867
▁courtyard	-13868
▁jewellery	-13869
▁memorable	-13870
▁motorbike	-13871
▁responding	-13872
▁surfboards	-13873
▁centimeters	-13874
▁dragonflies	-13875
▁unfortunate	-13876
▁carelessness	-13877
▁straightened	-13878
.".	-13879
ssa	-13880
▁aa	-13881
chin	-13882
heal	-13883
iche	-13884
spir	-13885
bones	-13886
cammy	-13887
hours	-13888
jumpy	-13889
scare	-13890
▁balm	-13891
▁pods	-13892
▁rico	-13893
ignore	-13894
▁bubby	-13895
▁denny	-13896
▁filth	-13897
▁moldy	-13898
▁vivid	-13899
balloon	-13900
▁embark	-13901
▁flexib	-13902
▁fossil	-13903
▁stevie	-13904
▁bargain	-13905
▁blushes	-13906
▁chelsea	-13907
▁grouchy	-13908
▁illumin	-13909
▁balances	-13910
▁dislikes	-13911
▁tadpoles	-13912
▁backstage	-13913
▁playgroup	-13914
▁snatching	-13915
▁squiggles	-13916
add	-13917
ika	-13918
iva	-13919
calm	-13920
door	-13921
expl	-13922
gled	-13923
glow	-13924
mirr	-13925
oooh	-13926
sack	-13927
▁est	-13928
▁foe	-13929
▁ian	-13930
▁sob	-13931
▁ugl	-13932
staff	-13933
▁bawk	-13934
▁hump	-13935
▁kaya	-13936
▁pros	-13937
▁reds	-13938
▁scep	-13939
▁spud	-13940
▁troy	-13941
ashley	-13942
closed	-13943
▁carri	-13944
▁claim	-13945
▁clink	-13946
▁graze	-13947
▁simpl	-13948
ancient	-13949
▁arnold	-13950
▁contra	-13951
▁jemima	-13952
▁nudges	-13953
▁pinata	-13954
▁ripest	-13955
▁barkley	-13956
▁recycle	-13957
▁marchers	-13958
▁raccoons	-13959
▁predators	-13960
▁sensitive	-13961
▁squishing	-13962
▁stuttered	-13963
▁unloading	-13964
kel	-13965
ock	-13966
yup	-13967
bury	-13968
laim	-13969
mixy	-13970
post	-13971
rene	-13972
▁fia	-13973
▁jol	-13974
▁ram	-13975
think	-13976
▁iggy	-13977
▁shri	-13978
▁tart	-13979
faster	-13980
mirror	-13981
moving	-13982
▁corns	-13983
▁leaky	-13984
▁wrest	-13985
▁zebby	-13986
helping	-13987
perhaps	-13988
▁cliffs	-13989
▁erases	-13990
▁fasten	-13991
▁wrecks	-13992
▁couches	-13993
▁diapers	-13994
▁gentler	-13995
▁haunted	-13996
▁madison	-13997
▁powders	-13998
▁scepter	-13999
▁particip	-14000
▁fragrance	-14001
▁marvelous	-14002
▁scuttling	-14003
▁sympathet	-14004
▁constantly	-14005
▁hesitating	-14006
.",	-14007
twe	-14008
cape	-14009
high	-14010
need	-14011
spec	-14012
vivi	-14013
▁aye	-14014
▁fee	-14015
▁jak	-14016
biggy	-14017
earth	-14018
learn	-14019
▁cert	-14020
▁huts	-14021
▁span	-14022
▁sunr	-14023
attach	-14024
▁email	-14025
▁grime	-14026
▁range	-14027
▁soups	-14028
sparkle	-14029
special	-14030
▁chorus	-14031
▁harvey	-14032
▁margie	-14033
▁posted	-14034
▁tucker	-14035
▁proving	-14036
▁shatter	-14037
lightning	-14038
▁boarding	-14039
▁entirely	-14040
▁perfumes	-14041
▁resource	-14042
▁galloping	-14043
▁skeptical	-14044
▁strumming	-14045
▁friendlier	-14046
▁motionless	-14047
▁flexibility	-14048
▁tentatively	-14049
▁wonderfully	-14050
▁triumphantly	-14051
!?	-14052
buy	-14053
bite	-14054
cact	-14055
goal	-14056
luxu	-14057
retr	-14058
sper	-14059
▁lil	-14060
dotty	-14061
hanna	-14062
shest	-14063
uders	-14064
▁curb	-14065
▁slug	-14066
▁zizi	-14067
gobble	-14068
luxury	-14069
police	-14070
▁absor	-14071
▁diner	-14072
▁lambs	-14073
▁margo	-14074
retruck	-14075
▁creaky	-14076
▁multip	-14077
▁pianos	-14078
▁weaved	-14079
climbing	-14080
▁looping	-14081
▁sunning	-14082
▁wetting	-14083
▁climbers	-14084
▁comforts	-14085
▁reassure	-14086
▁snorting	-14087
▁streamed	-14088
▁thumping	-14089
▁firetruck	-14090
▁assistance	-14091
▁regardless	-14092
▁marketplace	-14093
▁courageously	-14094
▁relationship	-14095
▁,	-14096
sum	-14097
inea	-14098
load	-14099
much	-14100
nope	-14101
pear	-14102
xies	-14103
▁awk	-14104
▁les	-14105
▁tee	-14106
cocoa	-14107
lunch	-14108
might	-14109
ribut	-14110
umbly	-14111
▁dana	-14112
▁roby	-14113
▁tobi	-14114
▁wigs	-14115
▁zach	-14116
iffany	-14117
turtle	-14118
tweety	-14119
waffle	-14120
▁brett	-14121
▁hired	-14122
▁intru	-14123
▁plead	-14124
▁renew	-14125
eterred	-14126
▁bronto	-14127
▁duties	-14128
▁grunts	-14129
▁guinea	-14130
▁louisa	-14131
▁portal	-14132
▁sacked	-14133
▁spines	-14134
▁webbed	-14135
▁adamant	-14136
▁awkward	-14137
▁glinted	-14138
▁joggers	-14139
▁pointer	-14140
▁rafting	-14141
▁simpler	-14142
▁tiniest	-14143
▁unaware	-14144
▁wrinkle	-14145
▁focusing	-14146
▁galaxies	-14147
▁pinchers	-14148
▁proposed	-14149
▁sparkler	-14150
▁truthful	-14151
▁armchairs	-14152
▁daughters	-14153
▁increases	-14154
butterflies	-14155
▁gatekeeper	-14156
▁photograph	-14157
▁wheelchair	-14158
▁adventuring	-14159
▁appropriate	-14160
coo	-14161
dry	-14162
aden	-14163
chip	-14164
oped	-14165
ques	-14166
riff	-14167
thud	-14168
ully	-14169
▁fay	-14170
▁raj	-14171
clare	-14172
laser	-14173
overs	-14174
salad	-14175
softy	-14176
study	-14177
▁litt	-14178
▁tino	-14179
import	-14180
settle	-14181
spirit	-14182
▁hopsy	-14183
▁ports	-14184
▁thurs	-14185
▁tonya	-14186
unknown	-14187
▁dreamy	-14188
▁furrow	-14189
▁kirsty	-14190
▁smokes	-14191
▁tweets	-14192
▁trolley	-14193
▁version	-14194
▁danielle	-14195
▁overalls	-14196
▁pathways	-14197
▁volcanos	-14198
▁blossomed	-14199
▁recognise	-14200
▁selection	-14201
▁upsetting	-14202
▁gentleness	-14203
▁introduces	-14204
▁questioning	-14205
!!	-14206
auce	-14207
clus	-14208
dive	-14209
grrr	-14210
hipp	-14211
mome	-14212
orty	-14213
zens	-14214
flick	-14215
rants	-14216
straw	-14217
style	-14218
teach	-14219
▁gums	-14220
bridge	-14221
taking	-14222
▁ariel	-14223
▁coals	-14224
▁macaw	-14225
▁mural	-14226
▁repre	-14227
balance	-14228
▁andrea	-14229
▁dozens	-14230
▁miners	-14231
▁straps	-14232
▁crumbly	-14233
▁footing	-14234
▁precaut	-14235
▁secured	-14236
checkmate	-14237
important	-14238
▁feathery	-14239
▁selected	-14240
▁complains	-14241
▁intruders	-14242
▁toothpick	-14243
▁scribbling	-14244
▁storeowner	-14245
!',	-14246
pas	-14247
jail	-14248
wash	-14249
zack	-14250
▁ale	-14251
cally	-14252
icier	-14253
ified	-14254
juice	-14255
manny	-14256
nicky	-14257
opher	-14258
price	-14259
ureen	-14260
▁feat	-14261
▁frid	-14262
▁omar	-14263
▁thea	-14264
mighty	-14265
solved	-14266
▁aahed	-14267
▁accur	-14268
▁booed	-14269
▁clank	-14270
▁clyde	-14271
▁jared	-14272
▁llama	-14273
▁marta	-14274
▁navig	-14275
▁parad	-14276
▁swipe	-14277
matches	-14278
moments	-14279
▁ouchie	-14280
▁pranks	-14281
▁quench	-14282
▁rhinos	-14283
▁spends	-14284
▁conclus	-14285
▁frances	-14286
▁grasses	-14287
▁competed	-14288
▁fluffles	-14289
▁gemstone	-14290
▁lightbulb	-14291
▁observant	-14292
▁wealthier	-14293
▁deliveries	-14294
wre	-14295
eros	-14296
faye	-14297
mond	-14298
oise	-14299
sley	-14300
snip	-14301
sort	-14302
tess	-14303
▁duo	-14304
▁pom	-14305
comes	-14306
comet	-14307
delay	-14308
truth	-14309
weigh	-14310
▁clen	-14311
▁jude	-14312
▁rage	-14313
▁unpr	-14314
escape	-14315
haired	-14316
willie	-14317
▁cassy	-14318
▁cycle	-14319
▁ledge	-14320
▁lilli	-14321
▁lucia	-14322
▁prays	-14323
▁rescu	-14324
▁sofas	-14325
▁stork	-14326
▁zeros	-14327
animals	-14328
jumping	-14329
▁aching	-14330
▁colony	-14331
▁wreath	-14332
▁yields	-14333
treating	-14334
▁creates	-14335
▁mallory	-14336
▁postbox	-14337
▁removes	-14338
▁sponges	-14339
▁squawks	-14340
▁stitchy	-14341
▁awaiting	-14342
▁bursting	-14343
▁counters	-14344
▁gingerly	-14345
▁paradise	-14346
▁requires	-14347
▁thursday	-14348
▁blackbird	-14349
▁hairbrush	-14350
▁hamburgers	-14351
bes	-14352
nat	-14353
pad	-14354
▁ay	-14355
coby	-14356
folk	-14357
gray	-14358
▁rac	-14359
actly	-14360
ifact	-14361
jemma	-14362
quiet	-14363
split	-14364
▁bray	-14365
▁entr	-14366
▁fern	-14367
▁fert	-14368
▁forb	-14369
▁kira	-14370
▁scor	-14371
▁tarp	-14372
▁trek	-14373
joseph	-14374
legged	-14375
unches	-14376
▁chord	-14377
▁faire	-14378
▁fritz	-14379
▁jonah	-14380
▁ovens	-14381
display	-14382
▁bunbun	-14383
▁burped	-14384
▁corrid	-14385
▁honour	-14386
▁oppone	-14387
▁snugly	-14388
▁chester	-14389
▁crawler	-14390
▁hammock	-14391
▁largest	-14392
▁shaping	-14393
▁sheriff	-14394
▁toasted	-14395
▁boastful	-14396
▁delivers	-14397
▁grilling	-14398
▁grumpily	-14399
▁centipede	-14400
▁nevertheless	-14401
▁disagreements	-14402
ism	-14403
ule	-14404
wil	-14405
colm	-14406
dder	-14407
deer	-14408
fear	-14409
hang	-14410
liam	-14411
otto	-14412
ucer	-14413
west	-14414
▁coy	-14415
▁pel	-14416
▁sno	-14417
▁tic	-14418
iwork	-14419
oscar	-14420
▁appy	-14421
▁auth	-14422
▁boar	-14423
▁brig	-14424
▁cami	-14425
▁iris	-14426
▁murm	-14427
deness	-14428
flying	-14429
summer	-14430
▁chart	-14431
▁dishy	-14432
▁edged	-14433
▁scars	-14434
▁wasps	-14435
▁wormy	-14436
cookies	-14437
▁origin	-14438
▁saucer	-14439
▁babyish	-14440
▁blazing	-14441
▁bradley	-14442
▁cackled	-14443
▁clinked	-14444
▁dumping	-14445
▁dusting	-14446
▁emotion	-14447
▁festive	-14448
▁roaming	-14449
▁swatted	-14450
▁alleyway	-14451
▁artifact	-14452
▁assemble	-14453
▁clumsily	-14454
▁findings	-14455
▁meantime	-14456
▁outcomes	-14457
▁retrieve	-14458
▁rudeness	-14459
▁sizzling	-14460
▁handiwork	-14461
▁magicians	-14462
▁obviously	-14463
▁practices	-14464
▁raspberry	-14465
▁townsfolk	-14466
▁abracadabra	-14467
▁nervousness	-14468
▁willingness	-14469
▁preparations	-14470
bot	-14471
fan	-14472
lamp	-14473
lemn	-14474
mick	-14475
ryer	-14476
dling	-14477
smoke	-14478
wreck	-14479
▁emmi	-14480
▁jams	-14481
▁lids	-14482
maisie	-14483
remove	-14484
▁annoy	-14485
▁cuter	-14486
▁ferry	-14487
▁hives	-14488
▁mates	-14489
▁squid	-14490
▁willa	-14491
▁angles	-14492
▁horsey	-14493
▁oblige	-14494
▁skully	-14495
▁solemn	-14496
▁straws	-14497
jonathan	-14498
▁astound	-14499
▁clasped	-14500
▁daycare	-14501
▁delilah	-14502
▁infants	-14503
▁royalty	-14504
▁tweeted	-14505
▁angelina	-14506
▁cookbook	-14507
▁discount	-14508
▁examines	-14509
▁invented	-14510
▁products	-14511
▁sunrises	-14512
▁earthworm	-14513
▁elevators	-14514
▁hairdryer	-14515
▁immensely	-14516
▁sebastian	-14517
▁witnessed	-14518
▁afternoons	-14519
▁restaurants	-14520
▁overwhelming	-14521
▁independently	-14522
eek	-14523
log	-14524
gent	-14525
goat	-14526
shar	-14527
▁grr	-14528
▁mam	-14529
▁mim	-14530
croco	-14531
gilly	-14532
matty	-14533
medic	-14534
▁doze	-14535
▁grrr	-14536
▁opal	-14537
buster	-14538
scopes	-14539
▁crate	-14540
▁devel	-14541
▁pulse	-14542
exactly	-14543
▁author	-14544
▁bloody	-14545
▁flyers	-14546
▁harper	-14547
▁unties	-14548
▁bouncey	-14549
▁celeste	-14550
▁drooped	-14551
▁greatly	-14552
▁powered	-14553
▁communic	-14554
▁defended	-14555
▁gracious	-14556
▁junkyard	-14557
▁missions	-14558
thankfully	-14559
▁marvelled	-14560
▁seemingly	-14561
▁signature	-14562
▁altogether	-14563
▁favourites	-14564
▁achievements	-14565
rip	-14566
toe	-14567
bugs	-14568
cled	-14569
list	-14570
pour	-14571
▁cec	-14572
▁deb	-14573
▁fol	-14574
▁nar	-14575
nging	-14576
paint	-14577
▁coos	-14578
▁dece	-14579
▁jana	-14580
▁koko	-14581
▁lolo	-14582
▁mans	-14583
▁peed	-14584
▁teen	-14585
cookie	-14586
▁arose	-14587
▁cling	-14588
▁crime	-14589
▁freda	-14590
▁gills	-14591
▁pokie	-14592
▁rubby	-14593
▁soars	-14594
▁teary	-14595
halfway	-14596
▁chilli	-14597
▁eaters	-14598
▁echoes	-14599
▁flossy	-14600
▁gramps	-14601
▁itched	-14602
▁kennel	-14603
▁moaned	-14604
▁plains	-14605
▁regain	-14606
▁robbed	-14607
▁skunks	-14608
▁submar	-14609
▁tennis	-14610
jennifer	-14611
medicine	-14612
▁exclaim	-14613
▁quarter	-14614
▁rebuilt	-14615
▁renewed	-14616
▁cavities	-14617
▁furrowed	-14618
▁gertrude	-14619
▁leftover	-14620
▁weekends	-14621
▁entranced	-14622
▁ponytails	-14623
▁tinkering	-14624
▁broomstick	-14625
▁impression	-14626
▁educational	-14627
▁increasingly	-14628
gor	-14629
lda	-14630
ode	-14631
▁aj	-14632
....	-14633
feed	-14634
ille	-14635
▁jag	-14636
felix	-14637
pengu	-14638
robin	-14639
ulted	-14640
▁arrr	-14641
▁lack	-14642
▁moth	-14643
▁roug	-14644
drated	-14645
flopsy	-14646
patter	-14647
shirts	-14648
▁amaya	-14649
▁angle	-14650
▁chime	-14651
▁churn	-14652
▁deafy	-14653
▁hoots	-14654
▁kerry	-14655
▁lilah	-14656
▁proof	-14657
▁rooft	-14658
monster	-14659
naughty	-14660
▁budget	-14661
▁certif	-14662
▁relent	-14663
▁severe	-14664
▁socket	-14665
▁tinker	-14666
rainbows	-14667
▁brewing	-14668
▁feasted	-14669
▁finders	-14670
▁swiftly	-14671
▁fiercest	-14672
▁luxuries	-14673
▁operator	-14674
▁shimmery	-14675
▁unlikely	-14676
▁fairytale	-14677
▁harvested	-14678
▁controller	-14679
▁downstream	-14680
▁inspection	-14681
▁regretting	-14682
▁separately	-14683
▁deliveryman	-14684
▁extinguished	-14685
ii	-14686
acy	-14687
plo	-14688
pri	-14689
blow	-14690
foot	-14691
imee	-14692
joan	-14693
pony	-14694
roxy	-14695
wrap	-14696
jimbo	-14697
kathy	-14698
scary	-14699
taste	-14700
▁poet	-14701
▁puss	-14702
▁racy	-14703
donald	-14704
floppy	-14705
marley	-14706
shrimp	-14707
▁bakes	-14708
▁filly	-14709
▁grins	-14710
▁negle	-14711
▁smear	-14712
▁soaks	-14713
▁taffy	-14714
cracker	-14715
deliver	-14716
▁bertha	-14717
▁heroic	-14718
▁humbly	-14719
▁ronnie	-14720
▁shaved	-14721
▁squint	-14722
▁strate	-14723
▁summit	-14724
▁traced	-14725
▁chanted	-14726
▁combine	-14727
▁riddles	-14728
▁signals	-14729
▁sprayer	-14730
▁violets	-14731
carefully	-14732
fireworks	-14733
▁childish	-14734
▁clenched	-14735
▁creeping	-14736
▁hallways	-14737
▁receives	-14738
▁spotting	-14739
▁according	-14740
▁ambitious	-14741
▁playdough	-14742
▁radiating	-14743
▁treatment	-14744
[...]
